{
  "version": "1.0",
  "truncation": null,
  "padding": null,
  "added_tokens": [
    {
      "id": 0,
      "content": "[PAD]",
      "single_word": false,
      "lstrip": false,
      "rstrip": false,
      "normalized": false,
      "special": true
    },
    {
      "id": 1,
      "content": "[UNK]",
      "single_word": false,
      "lstrip": false,
      "rstrip": false,
      "normalized": false,
      "special": true
    },
    {
      "id": 2,
      "content": "[CLS]",
      "single_word": false,
      "lstrip": false,
      "rstrip": false,
      "normalized": false,
      "special": true
    },
    {
      "id": 3,
      "content": "[SEP]",
      "single_word": false,
      "lstrip": false,
      "rstrip": false,
      "normalized": false,
      "special": true
    },
    {
      "id": 4,
      "content": "[MASK]",
      "single_word": false,
      "lstrip": true,
      "rstrip": false,
      "normalized": false,
      "special": true
    },
    {
      "id": 50000,
      "content": "[EOS]",
      "single_word": false,
      "lstrip": false,
      "rstrip": false,
      "normalized": false,
      "special": true
    }
  ],
  "normalizer": {
    "type": "BertNormalizer",
    "clean_text": true,
    "handle_chinese_chars": false,
    "strip_accents": false,
    "lowercase": false
  },
  "pre_tokenizer": {
    "type": "BertPreTokenizer"
  },
  "post_processor": {
    "type": "TemplateProcessing",
    "single": [
      {
        "SpecialToken": {
          "id": "[CLS]",
          "type_id": 0
        }
      },
      {
        "Sequence": {
          "id": "A",
          "type_id": 0
        }
      },
      {
        "SpecialToken": {
          "id": "[SEP]",
          "type_id": 0
        }
      }
    ],
    "pair": [
      {
        "SpecialToken": {
          "id": "[CLS]",
          "type_id": 0
        }
      },
      {
        "Sequence": {
          "id": "A",
          "type_id": 0
        }
      },
      {
        "SpecialToken": {
          "id": "[SEP]",
          "type_id": 0
        }
      },
      {
        "Sequence": {
          "id": "B",
          "type_id": 1
        }
      },
      {
        "SpecialToken": {
          "id": "[SEP]",
          "type_id": 1
        }
      }
    ],
    "special_tokens": {
      "[CLS]": {
        "id": "[CLS]",
        "ids": [
          2
        ],
        "tokens": [
          "[CLS]"
        ]
      },
      "[SEP]": {
        "id": "[SEP]",
        "ids": [
          3
        ],
        "tokens": [
          "[SEP]"
        ]
      }
    }
  },
  "decoder": {
    "type": "WordPiece",
    "prefix": "##",
    "cleanup": true
  },
  "model": {
    "type": "WordPiece",
    "unk_token": "[UNK]",
    "continuing_subword_prefix": "##",
    "max_input_chars_per_word": 100,
    "vocab": {
      "[PAD]": 0,
      "[UNK]": 1,
      "[CLS]": 2,
      "[SEP]": 3,
      "[MASK]": 4,
      "!": 5,
      "\"": 6,
      "#": 7,
      "$": 8,
      "%": 9,
      "&": 10,
      "'": 11,
      "(": 12,
      ")": 13,
      "*": 14,
      "+": 15,
      ",": 16,
      "-": 17,
      ".": 18,
      "/": 19,
      "0": 20,
      "1": 21,
      "2": 22,
      "3": 23,
      "4": 24,
      "5": 25,
      "6": 26,
      "7": 27,
      "8": 28,
      "9": 29,
      ":": 30,
      ";": 31,
      "<": 32,
      "=": 33,
      ">": 34,
      "?": 35,
      "@": 36,
      "A": 37,
      "B": 38,
      "C": 39,
      "D": 40,
      "E": 41,
      "F": 42,
      "G": 43,
      "H": 44,
      "I": 45,
      "J": 46,
      "K": 47,
      "L": 48,
      "M": 49,
      "N": 50,
      "O": 51,
      "P": 52,
      "Q": 53,
      "R": 54,
      "S": 55,
      "T": 56,
      "U": 57,
      "V": 58,
      "W": 59,
      "X": 60,
      "Y": 61,
      "Z": 62,
      "[": 63,
      "\\": 64,
      "]": 65,
      "^": 66,
      "_": 67,
      "`": 68,
      "a": 69,
      "b": 70,
      "c": 71,
      "d": 72,
      "e": 73,
      "f": 74,
      "g": 75,
      "h": 76,
      "i": 77,
      "j": 78,
      "k": 79,
      "l": 80,
      "m": 81,
      "n": 82,
      "o": 83,
      "p": 84,
      "q": 85,
      "r": 86,
      "s": 87,
      "t": 88,
      "u": 89,
      "v": 90,
      "w": 91,
      "x": 92,
      "y": 93,
      "z": 94,
      "{": 95,
      "|": 96,
      "}": 97,
      "~": 98,
      "¡": 99,
      "¢": 100,
      "£": 101,
      "¤": 102,
      "¥": 103,
      "¦": 104,
      "§": 105,
      "¨": 106,
      "©": 107,
      "«": 108,
      "¬": 109,
      "®": 110,
      "¯": 111,
      "°": 112,
      "±": 113,
      "²": 114,
      "³": 115,
      "´": 116,
      "µ": 117,
      "¶": 118,
      "·": 119,
      "¸": 120,
      "¹": 121,
      "º": 122,
      "»": 123,
      "¼": 124,
      "½": 125,
      "¾": 126,
      "¿": 127,
      "À": 128,
      "Á": 129,
      "Â": 130,
      "Ã": 131,
      "Ä": 132,
      "Å": 133,
      "Æ": 134,
      "Ç": 135,
      "È": 136,
      "É": 137,
      "Ê": 138,
      "Ë": 139,
      "Ì": 140,
      "Í": 141,
      "Î": 142,
      "Ï": 143,
      "Ð": 144,
      "Ñ": 145,
      "Ó": 146,
      "Ô": 147,
      "Õ": 148,
      "Ö": 149,
      "×": 150,
      "Ø": 151,
      "Ù": 152,
      "Ú": 153,
      "Û": 154,
      "Ü": 155,
      "Ý": 156,
      "Þ": 157,
      "ß": 158,
      "à": 159,
      "á": 160,
      "â": 161,
      "ã": 162,
      "ä": 163,
      "å": 164,
      "æ": 165,
      "ç": 166,
      "è": 167,
      "é": 168,
      "ê": 169,
      "ë": 170,
      "ì": 171,
      "í": 172,
      "î": 173,
      "ï": 174,
      "ð": 175,
      "ñ": 176,
      "ò": 177,
      "ó": 178,
      "ô": 179,
      "õ": 180,
      "ö": 181,
      "÷": 182,
      "ø": 183,
      "ù": 184,
      "ú": 185,
      "û": 186,
      "ü": 187,
      "ý": 188,
      "þ": 189,
      "ÿ": 190,
      "ā": 191,
      "Ă": 192,
      "ă": 193,
      "ą": 194,
      "ć": 195,
      "Č": 196,
      "č": 197,
      "Đ": 198,
      "đ": 199,
      "ē": 200,
      "ė": 201,
      "ę": 202,
      "ě": 203,
      "ĝ": 204,
      "Ğ": 205,
      "ğ": 206,
      "Ġ": 207,
      "ġ": 208,
      "Ģ": 209,
      "ģ": 210,
      "ĥ": 211,
      "ħ": 212,
      "ī": 213,
      "į": 214,
      "İ": 215,
      "ı": 216,
      "ķ": 217,
      "Ĺ": 218,
      "Ł": 219,
      "ł": 220,
      "ń": 221,
      "ň": 222,
      "ŋ": 223,
      "ō": 224,
      "ő": 225,
      "œ": 226,
      "ř": 227,
      "Ś": 228,
      "ś": 229,
      "ŝ": 230,
      "Ş": 231,
      "ş": 232,
      "Š": 233,
      "š": 234,
      "ţ": 235,
      "ū": 236,
      "ů": 237,
      "ű": 238,
      "ų": 239,
      "Ÿ": 240,
      "ź": 241,
      "ż": 242,
      "Ž": 243,
      "ž": 244,
      "Ƅ": 245,
      "ƅ": 246,
      "Ə": 247,
      "ƒ": 248,
      "ư": 249,
      "ǎ": 250,
      "ǧ": 251,
      "Ǿ": 252,
      "ȃ": 253,
      "Ș": 254,
      "ș": 255,
      "ț": 256,
      "ɑ": 257,
      "ɗ": 258,
      "ə": 259,
      "ɡ": 260,
      "ɪ": 261,
      "ɾ": 262,
      "ʹ": 263,
      "ʺ": 264,
      "ʻ": 265,
      "ʼ": 266,
      "ʾ": 267,
      "ʿ": 268,
      "ˁ": 269,
      "ˆ": 270,
      "ˈ": 271,
      "ː": 272,
      "˚": 273,
      "˜": 274,
      "ˮ": 275,
      "́": 276,
      "̂": 277,
      "̃": 278,
      "̆": 279,
      "̇": 280,
      "̈": 281,
      "̧": 282,
      "̱": 283,
      "̲": 284,
      "̳": 285,
      "̶": 286,
      "Α": 287,
      "Β": 288,
      "Γ": 289,
      "Δ": 290,
      "Ε": 291,
      "Η": 292,
      "Θ": 293,
      "Ι": 294,
      "Κ": 295,
      "Λ": 296,
      "Μ": 297,
      "Ν": 298,
      "Ο": 299,
      "Π": 300,
      "Ρ": 301,
      "Σ": 302,
      "Τ": 303,
      "Υ": 304,
      "Φ": 305,
      "Ω": 306,
      "ά": 307,
      "έ": 308,
      "ή": 309,
      "ί": 310,
      "α": 311,
      "β": 312,
      "γ": 313,
      "δ": 314,
      "ε": 315,
      "ζ": 316,
      "η": 317,
      "θ": 318,
      "ι": 319,
      "κ": 320,
      "λ": 321,
      "μ": 322,
      "ν": 323,
      "ξ": 324,
      "ο": 325,
      "π": 326,
      "ρ": 327,
      "ς": 328,
      "σ": 329,
      "τ": 330,
      "υ": 331,
      "φ": 332,
      "χ": 333,
      "ψ": 334,
      "ω": 335,
      "ό": 336,
      "ύ": 337,
      "ώ": 338,
      "А": 339,
      "Б": 340,
      "В": 341,
      "Г": 342,
      "Д": 343,
      "Е": 344,
      "Ж": 345,
      "З": 346,
      "И": 347,
      "К": 348,
      "Л": 349,
      "М": 350,
      "Н": 351,
      "О": 352,
      "П": 353,
      "Р": 354,
      "С": 355,
      "Т": 356,
      "У": 357,
      "Ф": 358,
      "Х": 359,
      "Ц": 360,
      "Ч": 361,
      "Ш": 362,
      "Ы": 363,
      "Ь": 364,
      "Э": 365,
      "Ю": 366,
      "Я": 367,
      "а": 368,
      "б": 369,
      "в": 370,
      "г": 371,
      "д": 372,
      "е": 373,
      "ж": 374,
      "з": 375,
      "и": 376,
      "й": 377,
      "к": 378,
      "л": 379,
      "м": 380,
      "н": 381,
      "о": 382,
      "п": 383,
      "р": 384,
      "с": 385,
      "т": 386,
      "у": 387,
      "ф": 388,
      "х": 389,
      "ц": 390,
      "ч": 391,
      "ш": 392,
      "щ": 393,
      "ъ": 394,
      "ы": 395,
      "ь": 396,
      "э": 397,
      "ю": 398,
      "я": 399,
      "ё": 400,
      "є": 401,
      "ѕ": 402,
      "і": 403,
      "ї": 404,
      "ј": 405,
      "џ": 406,
      "ѵ": 407,
      "Қ": 408,
      "қ": 409,
      "ҫ": 410,
      "ү": 411,
      "һ": 412,
      "ә": 413,
      "Ԁ": 414,
      "ԁ": 415,
      "Ա": 416,
      "Հ": 417,
      "ա": 418,
      "ե": 419,
      "թ": 420,
      "ի": 421,
      "լ": 422,
      "կ": 423,
      "մ": 424,
      "յ": 425,
      "ն": 426,
      "ո": 427,
      "ս": 428,
      "տ": 429,
      "ր": 430,
      "ց": 431,
      "ւ": 432,
      "ք": 433,
      "ִ": 434,
      "א": 435,
      "ב": 436,
      "ד": 437,
      "ה": 438,
      "ו": 439,
      "ח": 440,
      "י": 441,
      "כ": 442,
      "ל": 443,
      "ם": 444,
      "מ": 445,
      "נ": 446,
      "ע": 447,
      "פ": 448,
      "ק": 449,
      "ר": 450,
      "ש": 451,
      "ת": 452,
      "،": 453,
      "؛": 454,
      "؟": 455,
      "ء": 456,
      "آ": 457,
      "أ": 458,
      "ؤ": 459,
      "إ": 460,
      "ئ": 461,
      "ا": 462,
      "ب": 463,
      "ة": 464,
      "ت": 465,
      "ث": 466,
      "ج": 467,
      "ح": 468,
      "خ": 469,
      "د": 470,
      "ذ": 471,
      "ر": 472,
      "ز": 473,
      "س": 474,
      "ش": 475,
      "ص": 476,
      "ض": 477,
      "ط": 478,
      "ظ": 479,
      "ع": 480,
      "غ": 481,
      "ـ": 482,
      "ف": 483,
      "ق": 484,
      "ك": 485,
      "ل": 486,
      "م": 487,
      "ن": 488,
      "ه": 489,
      "و": 490,
      "ى": 491,
      "ي": 492,
      "ً": 493,
      "ٌ": 494,
      "ٍ": 495,
      "َ": 496,
      "ُ": 497,
      "ِ": 498,
      "ّ": 499,
      "ْ": 500,
      "ٓ": 501,
      "ٖ": 502,
      "٠": 503,
      "١": 504,
      "٢": 505,
      "٣": 506,
      "٤": 507,
      "٥": 508,
      "٦": 509,
      "ٰ": 510,
      "ٱ": 511,
      "پ": 512,
      "چ": 513,
      "ک": 514,
      "گ": 515,
      "ی": 516,
      "ە": 517,
      "ۙ": 518,
      "ۚ": 519,
      "ۜ": 520,
      "۞": 521,
      "ۡ": 522,
      "ۤ": 523,
      "۩": 524,
      "۪": 525,
      "ޞ": 526,
      "ं": 527,
      "क": 528,
      "त": 529,
      "द": 530,
      "न": 531,
      "प": 532,
      "भ": 533,
      "म": 534,
      "य": 535,
      "र": 536,
      "ल": 537,
      "स": 538,
      "ह": 539,
      "ा": 540,
      "ि": 541,
      "ी": 542,
      "े": 543,
      "्": 544,
      "ব": 545,
      "া": 546,
      "ஐ": 547,
      "்": 548,
      "ก": 549,
      "ข": 550,
      "ค": 551,
      "ง": 552,
      "จ": 553,
      "ช": 554,
      "ณ": 555,
      "ด": 556,
      "ต": 557,
      "ท": 558,
      "น": 559,
      "บ": 560,
      "ป": 561,
      "พ": 562,
      "ภ": 563,
      "ม": 564,
      "ย": 565,
      "ร": 566,
      "ล": 567,
      "ว": 568,
      "ษ": 569,
      "ส": 570,
      "ห": 571,
      "อ": 572,
      "ะ": 573,
      "ั": 574,
      "า": 575,
      "ำ": 576,
      "ิ": 577,
      "ี": 578,
      "ื": 579,
      "ุ": 580,
      "ู": 581,
      "฿": 582,
      "เ": 583,
      "แ": 584,
      "โ": 585,
      "ใ": 586,
      "ไ": 587,
      "็": 588,
      "่": 589,
      "้": 590,
      "์": 591,
      "๑": 592,
      "ა": 593,
      "ე": 594,
      "ვ": 595,
      "თ": 596,
      "ი": 597,
      "ლ": 598,
      "მ": 599,
      "ნ": 600,
      "ო": 601,
      "რ": 602,
      "ს": 603,
      "უ": 604,
      "ქ": 605,
      "ღ": 606,
      "Ᏼ": 607,
      "ᴏ": 608,
      "ᴠ": 609,
      "ḍ": 610,
      "Ḥ": 611,
      "ḥ": 612,
      "Ḫ": 613,
      "ḫ": 614,
      "Ḳ": 615,
      "ḳ": 616,
      "Ṣ": 617,
      "ṣ": 618,
      "Ṭ": 619,
      "ṭ": 620,
      "ẓ": 621,
      "ẕ": 622,
      "ạ": 623,
      "ế": 624,
      "ệ": 625,
      "‐": 626,
      "‑": 627,
      "‒": 628,
      "–": 629,
      "—": 630,
      "―": 631,
      "‘": 632,
      "’": 633,
      "‚": 634,
      "“": 635,
      "”": 636,
      "„": 637,
      "‟": 638,
      "†": 639,
      "‡": 640,
      "•": 641,
      "‣": 642,
      "…": 643,
      "‰": 644,
      "′": 645,
      "″": 646,
      "‹": 647,
      "›": 648,
      "‼": 649,
      "⁄": 650,
      "⁰": 651,
      "₂": 652,
      "ₒ": 653,
      "€": 654,
      "₺": 655,
      "⃣": 656,
      "℃": 657,
      "ℓ": 658,
      "№": 659,
      "™": 660,
      "ⅾ": 661,
      "←": 662,
      "↑": 663,
      "→": 664,
      "↓": 665,
      "↔": 666,
      "↩": 667,
      "↺": 668,
      "⇒": 669,
      "∂": 670,
      "∆": 671,
      "−": 672,
      "∙": 673,
      "√": 674,
      "∞": 675,
      "≈": 676,
      "≡": 677,
      "≤": 678,
      "≥": 679,
      "⋅": 680,
      "⋆": 681,
      "⌚": 682,
      "⎙": 683,
      "─": 684,
      "│": 685,
      "═": 686,
      "█": 687,
      "░": 688,
      "▓": 689,
      "■": 690,
      "□": 691,
      "▪": 692,
      "▫": 693,
      "▬": 694,
      "▲": 695,
      "▶": 696,
      "▷": 697,
      "▸": 698,
      "►": 699,
      "▻": 700,
      "▼": 701,
      "◆": 702,
      "◉": 703,
      "◊": 704,
      "○": 705,
      "●": 706,
      "◦": 707,
      "◾": 708,
      "☀": 709,
      "★": 710,
      "☆": 711,
      "☎": 712,
      "☑": 713,
      "☕": 714,
      "☘": 715,
      "☝": 716,
      "☟": 717,
      "☹": 718,
      "☺": 719,
      "♀": 720,
      "♂": 721,
      "♔": 722,
      "♕": 723,
      "♖": 724,
      "♚": 725,
      "♛": 726,
      "♠": 727,
      "♡": 728,
      "♣": 729,
      "♥": 730,
      "♦": 731,
      "♪": 732,
      "♫": 733,
      "⚠": 734,
      "⚡": 735,
      "⚽": 736,
      "✅": 737,
      "✈": 738,
      "✉": 739,
      "✋": 740,
      "✌": 741,
      "✍": 742,
      "✏": 743,
      "✓": 744,
      "✔": 745,
      "✖": 746,
      "✦": 747,
      "✨": 748,
      "✿": 749,
      "❄": 750,
      "❌": 751,
      "❓": 752,
      "❖": 753,
      "❗": 754,
      "❣": 755,
      "❤": 756,
      "❯": 757,
      "➖": 758,
      "➡": 759,
      "➢": 760,
      "➤": 761,
      "➥": 762,
      "⠀": 763,
      "⤓": 764,
      "⦁": 765,
      "⬇": 766,
      "⭐": 767,
      "、": 768,
      "。": 769,
      "》": 770,
      "「": 771,
      "」": 772,
      "【": 773,
      "】": 774,
      "あ": 775,
      "い": 776,
      "か": 777,
      "が": 778,
      "し": 779,
      "す": 780,
      "た": 781,
      "っ": 782,
      "て": 783,
      "で": 784,
      "と": 785,
      "な": 786,
      "に": 787,
      "の": 788,
      "は": 789,
      "ま": 790,
      "ら": 791,
      "り": 792,
      "る": 793,
      "を": 794,
      "ん": 795,
      "ア": 796,
      "イ": 797,
      "ク": 798,
      "シ": 799,
      "ス": 800,
      "ッ": 801,
      "ト": 802,
      "ラ": 803,
      "リ": 804,
      "ル": 805,
      "ン": 806,
      "・": 807,
      "ー": 808,
      "ㅋ": 809,
      "ㅠ": 810,
      "一": 811,
      "中": 812,
      "人": 813,
      "体": 814,
      "動": 815,
      "台": 816,
      "国": 817,
      "大": 818,
      "年": 819,
      "文": 820,
      "日": 821,
      "月": 822,
      "本": 823,
      "灣": 824,
      "的": 825,
      "简": 826,
      "繁": 827,
      "語": 828,
      "體": 829,
      "국": 830,
      "다": 831,
      "대": 832,
      "민": 833,
      "스": 834,
      "어": 835,
      "이": 836,
      "한": 837,
      "ﬁ": 838,
      "﴾": 839,
      "﴿": 840,
      "ﷺ": 841,
      "︎": 842,
      "️": 843,
      "ﺍ": 844,
      "ﺎ": 845,
      "ﺮ": 846,
      "ﻟ": 847,
      "ﻠ": 848,
      "ﻴ": 849,
      "￼": 850,
      "𝐀": 851,
      "𝐘": 852,
      "𝐝": 853,
      "𝐞": 854,
      "𝐢": 855,
      "𝐧": 856,
      "𝐫": 857,
      "𝐬": 858,
      "🇦": 859,
      "🇧": 860,
      "🇨": 861,
      "🇪": 862,
      "🇬": 863,
      "🇮": 864,
      "🇰": 865,
      "🇲": 866,
      "🇳": 867,
      "🇵": 868,
      "🇷": 869,
      "🇸": 870,
      "🇹": 871,
      "🇺": 872,
      "🇿": 873,
      "🌈": 874,
      "🌟": 875,
      "🌱": 876,
      "🌷": 877,
      "🌸": 878,
      "🌹": 879,
      "🌺": 880,
      "🌼": 881,
      "🌿": 882,
      "🍀": 883,
      "🍁": 884,
      "🍃": 885,
      "🎀": 886,
      "🎁": 887,
      "🎈": 888,
      "🎉": 889,
      "🎶": 890,
      "🏆": 891,
      "🏻": 892,
      "🏼": 893,
      "🏽": 894,
      "👀": 895,
      "👆": 896,
      "👇": 897,
      "👈": 898,
      "👉": 899,
      "👊": 900,
      "👋": 901,
      "👌": 902,
      "👍": 903,
      "👎": 904,
      "👏": 905,
      "👑": 906,
      "👤": 907,
      "👨": 908,
      "👩": 909,
      "💁": 910,
      "💃": 911,
      "💋": 912,
      "💎": 913,
      "💐": 914,
      "💓": 915,
      "💕": 916,
      "💖": 917,
      "💗": 918,
      "💙": 919,
      "💚": 920,
      "💛": 921,
      "💜": 922,
      "💞": 923,
      "💥": 924,
      "💪": 925,
      "💫": 926,
      "💬": 927,
      "💯": 928,
      "💰": 929,
      "💻": 930,
      "📆": 931,
      "📌": 932,
      "📍": 933,
      "📕": 934,
      "📖": 935,
      "📗": 936,
      "📘": 937,
      "📙": 938,
      "📚": 939,
      "📞": 940,
      "📢": 941,
      "📱": 942,
      "🔥": 943,
      "🔨": 944,
      "🔴": 945,
      "🔸": 946,
      "🔹": 947,
      "🕔": 948,
      "🖤": 949,
      "😀": 950,
      "😁": 951,
      "😂": 952,
      "😃": 953,
      "😄": 954,
      "😅": 955,
      "😆": 956,
      "😇": 957,
      "😉": 958,
      "😊": 959,
      "😋": 960,
      "😌": 961,
      "😍": 962,
      "😎": 963,
      "😏": 964,
      "😒": 965,
      "😔": 966,
      "😕": 967,
      "😘": 968,
      "😛": 969,
      "😜": 970,
      "😞": 971,
      "😡": 972,
      "😢": 973,
      "😥": 974,
      "😦": 975,
      "😬": 976,
      "😭": 977,
      "😱": 978,
      "🙁": 979,
      "🙂": 980,
      "🙃": 981,
      "🙄": 982,
      "🙈": 983,
      "🙋": 984,
      "🙌": 985,
      "🙏": 986,
      "🚀": 987,
      "🤍": 988,
      "🤑": 989,
      "🤔": 990,
      "🤗": 991,
      "🤣": 992,
      "🤦": 993,
      "🤩": 994,
      "🤭": 995,
      "🤲": 996,
      "🤷": 997,
      "🥇": 998,
      "🥰": 999,
      "🥳": 1000,
      "🥺": 1001,
      "🦋": 1002,
      "🧡": 1003,
      "🧿": 1004,
      "##H": 1005,
      "##T": 1006,
      "##İ": 1007,
      "##M": 1008,
      "##A": 1009,
      "##L": 1010,
      "##D": 1011,
      "##I": 1012,
      "##R": 1013,
      "##a": 1014,
      "##h": 1015,
      "##i": 1016,
      "##p": 1017,
      "##l": 1018,
      "##e": 1019,
      "##n": 1020,
      "##b": 1021,
      "##c": 1022,
      "##ğ": 1023,
      "##z": 1024,
      "##ş": 1025,
      "##t": 1026,
      "##r": 1027,
      "##m": 1028,
      "##s": 1029,
      "##d": 1030,
      "##ı": 1031,
      "##E": 1032,
      "##Ç": 1033,
      "##K": 1034,
      "##Z": 1035,
      "##7": 1036,
      "##8": 1037,
      "##9": 1038,
      "##5": 1039,
      "##0": 1040,
      "##4": 1041,
      "##k": 1042,
      "##â": 1043,
      "##f": 1044,
      "##Ü": 1045,
      "##F": 1046,
      "##Î": 1047,
      "##O": 1048,
      "##P": 1049,
      "##N": 1050,
      "##G": 1051,
      "##g": 1052,
      "##S": 1053,
      "##Y": 1054,
      "##B": 1055,
      "##ü": 1056,
      "##y": 1057,
      "##j": 1058,
      "##î": 1059,
      "##v": 1060,
      "##u": 1061,
      "##o": 1062,
      "##ç": 1063,
      "##ģ": 1064,
      "##у": 1065,
      "##с": 1066,
      "##к": 1067,
      "##и": 1068,
      "##й": 1069,
      "##中": 1070,
      "##文": 1071,
      "##Ö": 1072,
      "##Ş": 1073,
      "##x": 1074,
      "##1": 1075,
      "##6": 1076,
      "##に": 1077,
      "##リ": 1078,
      "##を": 1079,
      "##す": 1080,
      "##し": 1081,
      "##ま": 1082,
      "##ö": 1083,
      "##Ø": 1084,
      "##V": 1085,
      "##w": 1086,
      "##q": 1087,
      "##U": 1088,
      "##3": 1089,
      "##W": 1090,
      "##C": 1091,
      "##ý": 1092,
      "##ذ": 1093,
      "##ل": 1094,
      "##ة": 1095,
      "##ٍ": 1096,
      "##2": 1097,
      "##ǧ": 1098,
      "##´": 1099,
      "##а": 1100,
      "##J": 1101,
      "##і": 1102,
      "##é": 1103,
      "##ο": 1104,
      "##®": 1105,
      "##️": 1106,
      "##ů": 1107,
      "##ž": 1108,
      "##á": 1109,
      "##е": 1110,
      "##ê": 1111,
      "##б": 1112,
      "##р": 1113,
      "##ш": 1114,
      "##н": 1115,
      "##Q": 1116,
      "##ъ": 1117,
      "##г": 1118,
      "##ы": 1119,
      "##þ": 1120,
      "##ي": 1121,
      "##ق": 1122,
      "##ñ": 1123,
      "##ĝ": 1124,
      "##×": 1125,
      "##ð": 1126,
      "##ä": 1127,
      "##ș": 1128,
      "##è": 1129,
      "##س": 1130,
      "##ا": 1131,
      "##َ": 1132,
      "##ف": 1133,
      "##ر": 1134,
      "##ب": 1135,
      "##ً": 1136,
      "##Ğ": 1137,
      "##€": 1138,
      "##Â": 1139,
      "##X": 1140,
      "##о": 1141,
      "##т": 1142,
      "##п": 1143,
      "##м": 1144,
      "##в": 1145,
      "##💛": 1146,
      "##❤": 1147,
      "##Ý": 1148,
      "##ʾ": 1149,
      "##д": 1150,
      "##č": 1151,
      "##ə": 1152,
      "##̧": 1153,
      "##̆": 1154,
      "##¨": 1155,
      "##￼": 1156,
      "##µ": 1157,
      "##ě": 1158,
      "##ɑ": 1159,
      "##이": 1160,
      "##👍": 1161,
      "##¯": 1162,
      "##ѵ": 1163,
      "##̈": 1164,
      "##õ": 1165,
      "##™": 1166,
      "##¸": 1167,
      "##て": 1168,
      "##か": 1169,
      "##い": 1170,
      "##🙋": 1171,
      "##🏼": 1172,
      "##♀": 1173,
      "##л": 1174,
      "##ﺎ": 1175,
      "##ت": 1176,
      "##̇": 1177,
      "##û": 1178,
      "##ô": 1179,
      "##ﻟ": 1180,
      "##ْ": 1181,
      "##ِ": 1182,
      "##¬": 1183,
      "##💜": 1184,
      "##ß": 1185,
      "##で": 1186,
      "##ú": 1187,
      "##🧿": 1188,
      "##的": 1189,
      "##х": 1190,
      "##š": 1191,
      "##Я": 1192,
      "##°": 1193,
      "##😎": 1194,
      "##₺": 1195,
      "##د": 1196,
      "##ه": 1197,
      "##ُ": 1198,
      "##و": 1199,
      "##ح": 1200,
      "##خ": 1201,
      "##Ä": 1202,
      "##Ÿ": 1203,
      "##ن": 1204,
      "##😂": 1205,
      "##ّ": 1206,
      "##ח": 1207,
      "##ב": 1208,
      "##ו": 1209,
      "##ת": 1210,
      "##ج": 1211,
      "##ρ": 1212,
      "##ή": 1213,
      "##γ": 1214,
      "##υ": 1215,
      "##ς": 1216,
      "##م": 1217,
      "##ٓ": 1218,
      "##ҫ": 1219,
      "##α": 1220,
      "##β": 1221,
      "##έ": 1222,
      "##ţ": 1223,
      "##ع": 1224,
      "##💕": 1225,
      "##Θ": 1226,
      "##Λ": 1227,
      "##Η": 1228,
      "##Σ": 1229,
      "##Ι": 1230,
      "##Μ": 1231,
      "##Ο": 1232,
      "##Τ": 1233,
      "##อ": 1234,
      "##น": 1235,
      "##ช": 1236,
      "##่": 1237,
      "##ว": 1238,
      "##ง": 1239,
      "##ท": 1240,
      "##ี": 1241,
      "##ไ": 1242,
      "##ต": 1243,
      "##์": 1244,
      "##ก": 1245,
      "##ั": 1246,
      "##เ": 1247,
      "##ย": 1248,
      "##ะ": 1249,
      "##😢": 1250,
      "##😡": 1251,
      "##ظ": 1252,
      "##ю": 1253,
      "##ã": 1254,
      "##з": 1255,
      "##я": 1256,
      "##年": 1257,
      "##月": 1258,
      "##ٌ": 1259,
      "##𝐞": 1260,
      "##𝐝": 1261,
      "##🇸": 1262,
      "##ط": 1263,
      "##🌹": 1264,
      "##😘": 1265,
      "##λ": 1266,
      "##φ": 1267,
      "##ά": 1268,
      "##τ": 1269,
      "##η": 1270,
      "##💖": 1271,
      "##😊": 1272,
      "##▼": 1273,
      "##😍": 1274,
      "##Β": 1275,
      "##±": 1276,
      "##😄": 1277,
      "##ʹ": 1278,
      "##ë": 1279,
      "##ă": 1280,
      "##ж": 1281,
      "##ё": 1282,
      "##⃣": 1283,
      "##ˆ": 1284,
      "##Ḫ": 1285,
      "##ა": 1286,
      "##თ": 1287,
      "##ლ": 1288,
      "##ი": 1289,
      "##أ": 1290,
      "##ь": 1291,
      "##э": 1292,
      "##ι": 1293,
      "##Đ": 1294,
      "##נ": 1295,
      "##י": 1296,
      "##́": 1297,
      "##Å": 1298,
      "##ث": 1299,
      "##🏆": 1300,
      "##í": 1301,
      "##ư": 1302,
      "##ك": 1303,
      "##ى": 1304,
      "##ε": 1305,
      "##ξ": 1306,
      "##ν": 1307,
      "##δ": 1308,
      "##ύ": 1309,
      "##ա": 1310,
      "##ք": 1311,
      "##կ": 1312,
      "##ն": 1313,
      "##ی": 1314,
      "##−": 1315,
      "##ԁ": 1316,
      "##μ": 1317,
      "##π": 1318,
      "##κ": 1319,
      "##🇷": 1320,
      "##♥": 1321,
      "##🇦": 1322,
      "##🇿": 1323,
      "##🇹": 1324,
      "##ـ": 1325,
      "##ц": 1326,
      "##ф": 1327,
      "##🙃": 1328,
      "##🌸": 1329,
      "##Ģ": 1330,
      "##ئ": 1331,
      "##Ġ": 1332,
      "##ض": 1333,
      "##Û": 1334,
      "##ù": 1335,
      "##🏻": 1336,
      "##ѕ": 1337,
      "##😞": 1338,
      "##ż": 1339,
      "##۪": 1340,
      "##Ã": 1341,
      "##¢": 1342,
      "##ч": 1343,
      "##å": 1344,
      "##£": 1345,
      "##🤷": 1346,
      "##ש": 1347,
      "##כ": 1348,
      "##ה": 1349,
      "##ì": 1350,
      "##ʿ": 1351,
      "##☺": 1352,
      "##😁": 1353,
      "##🌟": 1354,
      "##إ": 1355,
      "##ٰ": 1356,
      "##ा": 1357,
      "##र": 1358,
      "##्": 1359,
      "##य": 1360,
      "##क": 1361,
      "##ि": 1362,
      "##ी": 1363,
      "##ί": 1364,
      "##ー": 1365,
      "##た": 1366,
      "##¤": 1367,
      "##👩": 1368,
      "##ɪ": 1369,
      "##🏽": 1370,
      "##œ": 1371,
      "##Υ": 1372,
      "##Ρ": 1373,
      "##Κ": 1374,
      "##Α": 1375,
      "##Е": 1376,
      "##џ": 1377,
      "##Д": 1378,
      "##Ь": 1379,
      "##ệ": 1380,
      "##غ": 1381,
      "##민": 1382,
      "##Р": 1383,
      "##є": 1384,
      "##💋": 1385,
      "##😉": 1386,
      "##¥": 1387,
      "##Ə": 1388,
      "##گ": 1389,
      "##آ": 1390,
      "##ﺮ": 1391,
      "##😅": 1392,
      "##ÿ": 1393,
      "##ḥ": 1394,
      "##🙏": 1395,
      "##어": 1396,
      "##●": 1397,
      "##ó": 1398,
      "##æ": 1399,
      "##ش": 1400,
      "##👇": 1401,
      "##ć": 1402,
      "##À": 1403,
      "##□": 1404,
      "##¹": 1405,
      "##■": 1406,
      "##Á": 1407,
      "##ā": 1408,
      "##ḳ": 1409,
      "##ï": 1410,
      "##˜": 1411,
      "##ɾ": 1412,
      "##💙": 1413,
      "##ป": 1414,
      "##็": 1415,
      "##ิ": 1416,
      "##า": 1417,
      "##ร": 1418,
      "##ำ": 1419,
      "##ด": 1420,
      "##้": 1421,
      "##บ": 1422,
      "##ค": 1423,
      "##ม": 1424,
      "##ส": 1425,
      "##ุ": 1426,
      "##ห": 1427,
      "##โ": 1428,
      "##พ": 1429,
      "##ใ": 1430,
      "##จ": 1431,
      "##ล": 1432,
      "##ู": 1433,
      "##ص": 1434,
      "##А": 1435,
      "##Н": 1436,
      "##У": 1437,
      "##ء": 1438,
      "##ز": 1439,
      "##σ": 1440,
      "##ո": 1441,
      "##ե": 1442,
      "##ś": 1443,
      "##©": 1444,
      "##à": 1445,
      "##ł": 1446,
      "##ø": 1447,
      "##რ": 1448,
      "##Ă": 1449,
      "##ź": 1450,
      "##😋": 1451,
      "##ە": 1452,
      "##Հ": 1453,
      "##յ": 1454,
      "##ր": 1455,
      "##ų": 1456,
      "##ר": 1457,
      "##Ḥ": 1458,
      "##П": 1459,
      "##چ": 1460,
      "##ň": 1461,
      "##ภ": 1462,
      "##ื": 1463,
      "##ۡ": 1464,
      "##イ": 1465,
      "##ッ": 1466,
      "##ク": 1467,
      "##な": 1468,
      "##日": 1469,
      "##が": 1470,
      "##ẕ": 1471,
      "##ī": 1472,
      "##𝐫": 1473,
      "##𝐬": 1474,
      "##𝐢": 1475,
      "##ò": 1476,
      "##ン": 1477,
      "##ス": 1478,
      "##ア": 1479,
      "##🥰": 1480,
      "##Ð": 1481,
      "##³": 1482,
      "##½": 1483,
      "##¾": 1484,
      "##Ñ": 1485,
      "##ē": 1486,
      "##ė": 1487,
      "##ū": 1488,
      "##Ù": 1489,
      "##💪": 1490,
      "##✅": 1491,
      "##ζ": 1492,
      "##ŋ": 1493,
      "##☆": 1494,
      "##ō": 1495,
      "##🇪": 1496,
      "##🇧": 1497,
      "##人": 1498,
      "##մ": 1499,
      "##ի": 1500,
      "##்": 1501,
      "##ˈ": 1502,
      "##≈": 1503,
      "##ं": 1504,
      "##ल": 1505,
      "##︎": 1506,
      "##台": 1507,
      "##฿": 1508,
      "##Ε": 1509,
      "##Ν": 1510,
      "##→": 1511,
      "##Š": 1512,
      "##¼": 1513,
      "##✌": 1514,
      "##🎉": 1515,
      "##º": 1516,
      "##💫": 1517,
      "##đ": 1518,
      "##Г": 1519,
      "##щ": 1520,
      "##ː": 1521,
      "##👌": 1522,
      "##😀": 1523,
      "##🤗": 1524,
      "##ک": 1525,
      "##は": 1526,
      "##ら": 1527,
      "##大": 1528,
      "##ს": 1529,
      "##한": 1530,
      "##მ": 1531,
      "##ო": 1532,
      "##ნ": 1533,
      "##ٖ": 1534,
      "##ვ": 1535,
      "##ე": 1536,
      "##💚": 1537,
      "##ķ": 1538,
      "##ˮ": 1539,
      "##🍀": 1540,
      "##̲": 1541,
      "##😇": 1542,
      "##ә": 1543,
      "##О": 1544,
      "##Ж": 1545,
      "##の": 1546,
      "##🙈": 1547,
      "##⚠": 1548,
      "##🙂": 1549,
      "##👏": 1550,
      "##≤": 1551,
      "##θ": 1552,
      "##ʻ": 1553,
      "##⭐": 1554,
      "##տ": 1555,
      "##ս": 1556,
      "##✨": 1557,
      "##ġ": 1558,
      "##М": 1559,
      "##│": 1560,
      "##█": 1561,
      "##🌺": 1562,
      "##ŝ": 1563,
      "##Þ": 1564,
      "##प": 1565,
      "##ṭ": 1566,
      "##🥺": 1567,
      "##Ǿ": 1568,
      "##ﻠ": 1569,
      "##ṣ": 1570,
      "##👋": 1571,
      "##ʺ": 1572,
      "##ข": 1573,
      "##ۤ": 1574,
      "##С": 1575,
      "##К": 1576,
      "##В": 1577,
      "##²": 1578,
      "##✔": 1579,
      "##ラ": 1580,
      "##Δ": 1581,
      "##👑": 1582,
      "##Ц": 1583,
      "##פ": 1584,
      "##א": 1585,
      "##ע": 1586,
      "##χ": 1587,
      "##√": 1588,
      "##👉": 1589,
      "##ǎ": 1590,
      "##Т": 1591,
      "##Л": 1592,
      "##И": 1593,
      "##З": 1594,
      "##Ω": 1595,
      "##国": 1596,
      "##מ": 1597,
      "##ٱ": 1598,
      "##Í": 1599,
      "##ő": 1600,
      "##ω": 1601,
      "##ל": 1602,
      "##😃": 1603,
      "##ﺍ": 1604,
      "##🔥": 1605,
      "##🌈": 1606,
      "##Ê": 1607,
      "##💎": 1608,
      "##✏": 1609,
      "##ם": 1610,
      "##₂": 1611,
      "##ẓ": 1612,
      "##ह": 1613,
      "##न": 1614,
      "##े": 1615,
      "##🎈": 1616,
      "##ル": 1617,
      "##ト": 1618,
      "##😌": 1619,
      "##ƒ": 1620,
      "##🎶": 1621,
      "##ˁ": 1622,
      "##ؤ": 1623,
      "##É": 1624,
      "##Ë": 1625,
      "##ї": 1626,
      "##ř": 1627,
      "##❖": 1628,
      "##★": 1629,
      "##🌷": 1630,
      "##☹": 1631,
      "##🤲": 1632,
      "##ց": 1633,
      "##ւ": 1634,
      "##𝐀": 1635,
      "##🤦": 1636,
      "##¦": 1637,
      "##🤔": 1638,
      "##☀": 1639,
      "##უ": 1640,
      "##া": 1641,
      "##қ": 1642,
      "##と": 1643,
      "##る": 1644,
      "##⇒": 1645,
      "##ą": 1646,
      "##Ú": 1647,
      "##👎": 1648,
      "##📚": 1649,
      "##☕": 1650,
      "##➖": 1651,
      "##💥": 1652,
      "##ﻴ": 1653,
      "##ű": 1654,
      "##🖤": 1655,
      "##Ó": 1656,
      "##😏": 1657,
      "##ό": 1658,
      "##̃": 1659,
      "##ḫ": 1660,
      "##🌱": 1661,
      "##😥": 1662,
      "##ۚ": 1663,
      "##♡": 1664,
      "##⁄": 1665,
      "##ۙ": 1666,
      "##⠀": 1667,
      "##թ": 1668,
      "##😭": 1669,
      "##ψ": 1670,
      "##ღ": 1671,
      "##Ы": 1672,
      "##ј": 1673,
      "##℃": 1674,
      "##٤": 1675,
      "##ę": 1676,
      "##Φ": 1677,
      "##♦": 1678,
      "##Ś": 1679,
      "##ế": 1680,
      "##🥳": 1681,
      "##≡": 1682,
      "##♂": 1683,
      "##̂": 1684,
      "##─": 1685,
      "##ۜ": 1686,
      "##Γ": 1687,
      "##Π": 1688,
      "##👨": 1689,
      "##ʼ": 1690,
      "##Э": 1691,
      "##👀": 1692,
      "##̶": 1693,
      "##🙄": 1694,
      "##🤩": 1695,
      "##▲": 1696,
      "##🍃": 1697,
      "##ޞ": 1698,
      "##Ч": 1699,
      "##Б": 1700,
      "##ִ": 1701,
      "##Č": 1702,
      "##📕": 1703,
      "##🤭": 1704,
      "##►": 1705,
      "##っ": 1706,
      "##り": 1707,
      "##ק": 1708,
      "##ㅋ": 1709,
      "##ń": 1710,
      "##▬": 1711,
      "##Ш": 1712,
      "##➡": 1713,
      "##🚀": 1714,
      "##Ф": 1715,
      "##į": 1716,
      "##💞": 1717,
      "##🤣": 1718,
      "##پ": 1719,
      "##ㅠ": 1720,
      "##💗": 1721,
      "##⚽": 1722,
      "##🎀": 1723,
      "##体": 1724,
      "##🇰": 1725,
      "##☝": 1726,
      "##Ș": 1727,
      "##द": 1728,
      "##♕": 1729,
      "##☘": 1730,
      "##🌿": 1731,
      "##Ì": 1732,
      "##💰": 1733,
      "##🥇": 1734,
      "##✋": 1735,
      "##😒": 1736,
      "##❗": 1737,
      "##स": 1738,
      "##☎": 1739,
      "##ạ": 1740,
      "##Ł": 1741,
      "##🔸": 1742,
      "##त": 1743,
      "##シ": 1744,
      "##📍": 1745,
      "##🌼": 1746,
      "##∆": 1747,
      "##一": 1748,
      "##Ա": 1749,
      "##∞": 1750,
      "##ĥ": 1751,
      "##💐": 1752,
      "##灣": 1753,
      "##Ž": 1754,
      "##Ô": 1755,
      "##简": 1756,
      "##✓": 1757,
      "##🙌": 1758,
      "##ȃ": 1759,
      "##ḍ": 1760,
      "##म": 1761,
      "##ώ": 1762,
      "##🍁": 1763,
      "##🦋": 1764,
      "##≥": 1765,
      "##❣": 1766,
      "##👈": 1767,
      "##ব": 1768,
      "##ษ": 1769,
      "##💃": 1770,
      "##ד": 1771,
      "##แ": 1772,
      "##😜": 1773,
      "##🇵": 1774,
      "##あ": 1775,
      "##🧡": 1776,
      "##📌": 1777,
      "##ħ": 1778,
      "##ț": 1779,
      "##Х": 1780,
      "##😕": 1781,
      "##Õ": 1782,
      "##←": 1783,
      "##÷": 1784,
      "##È": 1785,
      "##ん": 1786,
      "##다": 1787,
      "##😔": 1788,
      "##📞": 1789,
      "##↓": 1790,
      "##😆": 1791,
      "##🤑": 1792,
      "##本": 1793,
      "##動": 1794,
      "##✿": 1795,
      "##١": 1796,
      "##語": 1797,
      "##۞": 1798,
      "##̱": 1799,
      "##💯": 1800,
      "##😱": 1801,
      "##♠": 1802,
      "##♣": 1803,
      "##♫": 1804,
      "##🎁": 1805,
      "##❌": 1806,
      "##ᴏ": 1807,
      "##🇬": 1808,
      "##٣": 1809,
      "##٠": 1810,
      "##❓": 1811,
      "##💓": 1812,
      "##ℓ": 1813,
      "##➤": 1814,
      "##🇲": 1815,
      "##😬": 1816,
      "##∂": 1817,
      "##體": 1818,
      "##⚡": 1819,
      "##⁰": 1820,
      "##░": 1821,
      "##һ": 1822,
      "##📖": 1823,
      "##ქ": 1824,
      "##↩": 1825,
      "##스": 1826,
      "##˚": 1827,
      "##լ": 1828,
      "##⌚": 1829,
      "##═": 1830,
      "##✍": 1831,
      "##ү": 1832,
      "##🇺": 1833,
      "##📙": 1834,
      "##대": 1835,
      "##❄": 1836,
      "##№": 1837,
      "##🙁": 1838,
      "##▪": 1839,
      "##💬": 1840,
      "##📱": 1841,
      "##Ḳ": 1842,
      "##⋅": 1843,
      "##⬇": 1844,
      "##٥": 1845,
      "##Ĺ": 1846,
      "##🔹": 1847,
      "##๑": 1848,
      "##☟": 1849,
      "##👊": 1850,
      "##↑": 1851,
      "##ɡ": 1852,
      "##٢": 1853,
      "##국": 1854,
      "##𝐧": 1855,
      "##○": 1856,
      "##🤍": 1857,
      "##▻": 1858,
      "##Æ": 1859,
      "##ﬁ": 1860,
      "##💁": 1861,
      "##✈": 1862,
      "##▶": 1863,
      "##♛": 1864,
      "##♚": 1865,
      "##✖": 1866,
      "##☑": 1867,
      "##↔": 1868,
      "##ஐ": 1869,
      "##ณ": 1870,
      "##📢": 1871,
      "##Ï": 1872,
      "##♪": 1873,
      "##👆": 1874,
      "##◊": 1875,
      "##∙": 1876,
      "##◉": 1877,
      "##Ԁ": 1878,
      "##🇳": 1879,
      "##▫": 1880,
      "##👤": 1881,
      "##۩": 1882,
      "##⦁": 1883,
      "##😛": 1884,
      "##💻": 1885,
      "##◦": 1886,
      "##⋆": 1887,
      "##ﷺ": 1888,
      "##🇮": 1889,
      "##➥": 1890,
      "##😦": 1891,
      "##📆": 1892,
      "##Ю": 1893,
      "##▓": 1894,
      "##ⅾ": 1895,
      "##🔴": 1896,
      "##📘": 1897,
      "##ᴠ": 1898,
      "##٦": 1899,
      "##📗": 1900,
      "##🇨": 1901,
      "##Қ": 1902,
      "##भ": 1903,
      "##◆": 1904,
      "##ƅ": 1905,
      "##̳": 1906,
      "##▸": 1907,
      "##♔": 1908,
      "##Ƅ": 1909,
      "##▷": 1910,
      "##➢": 1911,
      "##✦": 1912,
      "##✉": 1913,
      "##𝐘": 1914,
      "##🕔": 1915,
      "##繁": 1916,
      "##ₒ": 1917,
      "##ɗ": 1918,
      "##Ṣ": 1919,
      "##🔨": 1920,
      "##◾": 1921,
      "##♖": 1922,
      "##Ᏼ": 1923,
      "##↺": 1924,
      "##Ṭ": 1925,
      "##⎙": 1926,
      "##la": 1927,
      "##er": 1928,
      "##in": 1929,
      "##an": 1930,
      "##en": 1931,
      "##ın": 1932,
      "##ir": 1933,
      "##ar": 1934,
      "##il": 1935,
      "##lar": 1936,
      "##ak": 1937,
      "##ek": 1938,
      "##el": 1939,
      "##ma": 1940,
      "##le": 1941,
      "##da": 1942,
      "##de": 1943,
      "##ler": 1944,
      "##un": 1945,
      "##lı": 1946,
      "##or": 1947,
      "ve": 1948,
      "##et": 1949,
      "##iy": 1950,
      "##es": 1951,
      "##iz": 1952,
      "##on": 1953,
      "##at": 1954,
      "##ik": 1955,
      "##im": 1956,
      "bir": 1957,
      "##ır": 1958,
      "##lan": 1959,
      "##ay": 1960,
      "##ur": 1961,
      "##as": 1962,
      "##al": 1963,
      "##ün": 1964,
      "##em": 1965,
      "##is": 1966,
      "ya": 1967,
      "##ul": 1968,
      "de": 1969,
      "##am": 1970,
      "##it": 1971,
      "ol": 1972,
      "##ür": 1973,
      "##iş": 1974,
      "##ım": 1975,
      "##ah": 1976,
      "##ız": 1977,
      "##aş": 1978,
      "##di": 1979,
      "##ların": 1980,
      "##ey": 1981,
      "##um": 1982,
      "##ab": 1983,
      "##den": 1984,
      "##li": 1985,
      "iç": 1986,
      "##ya": 1987,
      "##dı": 1988,
      "##dan": 1989,
      "##az": 1990,
      "##ları": 1991,
      "##st": 1992,
      "##ıl": 1993,
      "##ağ": 1994,
      "gö": 1995,
      "##ok": 1996,
      "##ık": 1997,
      "##ini": 1998,
      "##ında": 1999,
      "için": 2000,
      "##ol": 2001,
      "yap": 2002,
      "##ış": 2003,
      "ar": 2004,
      "da": 2005,
      "##ad": 2006,
      "##ine": 2007,
      "##ec": 2008,
      "##du": 2009,
      "bu": 2010,
      "##esi": 2011,
      "##ük": 2012,
      "##inde": 2013,
      "##mas": 2014,
      "##leri": 2015,
      "##dir": 2016,
      "##ti": 2017,
      "##mak": 2018,
      "##eler": 2019,
      "##iler": 2020,
      "##ev": 2021,
      "ile": 2022,
      "##üz": 2023,
      "##yor": 2024,
      "##alı": 2025,
      "##üm": 2026,
      "##te": 2027,
      "##tı": 2028,
      "##me": 2029,
      "##af": 2030,
      "20": 2031,
      "##iyor": 2032,
      "##ap": 2033,
      "in": 2034,
      "##cak": 2035,
      "##ını": 2036,
      "et": 2037,
      "##uz": 2038,
      "##mek": 2039,
      "##bil": 2040,
      "al": 2041,
      "gör": 2042,
      "##inin": 2043,
      "##onu": 2044,
      "##ta": 2045,
      "baş": 2046,
      "an": 2047,
      "##ği": 2048,
      "##oğ": 2049,
      "##şt": 2050,
      "##lik": 2051,
      "##eç": 2052,
      "##iye": 2053,
      "##ut": 2054,
      "##cı": 2055,
      "ger": 2056,
      "##iniz": 2057,
      "##ına": 2058,
      "ver": 2059,
      "kar": 2060,
      "ön": 2061,
      "##ön": 2062,
      "##ce": 2063,
      "##larak": 2064,
      "gel": 2065,
      "##ğı": 2066,
      "##len": 2067,
      "##lu": 2068,
      "##dır": 2069,
      "il": 2070,
      "##lık": 2071,
      "bil": 2072,
      "ed": 2073,
      "oldu": 2074,
      "en": 2075,
      "##ip": 2076,
      "olarak": 2077,
      "##ması": 2078,
      "##ıs": 2079,
      "##ro": 2080,
      "iş": 2081,
      "##ed": 2082,
      "##man": 2083,
      "##ib": 2084,
      "##lay": 2085,
      "Bu": 2086,
      "##av": 2087,
      "##ez": 2088,
      "tar": 2089,
      "ay": 2090,
      "son": 2091,
      "değ": 2092,
      "##uk": 2093,
      "##ından": 2094,
      "##anı": 2095,
      "##unu": 2096,
      "##ra": 2097,
      "##aha": 2098,
      "olan": 2099,
      "##ullan": 2100,
      "##lama": 2101,
      "##ül": 2102,
      "##üş": 2103,
      "##se": 2104,
      "çok": 2105,
      "##tır": 2106,
      "ne": 2107,
      "##ası": 2108,
      "yer": 2109,
      "##tir": 2110,
      "##ürk": 2111,
      "##tan": 2112,
      "##om": 2113,
      "##op": 2114,
      "kullan": 2115,
      "aç": 2116,
      "##laş": 2117,
      "bul": 2118,
      "##ca": 2119,
      "##mış": 2120,
      "or": 2121,
      "##imiz": 2122,
      "##ka": 2123,
      "##ih": 2124,
      "##ör": 2125,
      "gün": 2126,
      "##lem": 2127,
      "ist": 2128,
      "daha": 2129,
      "sür": 2130,
      "##ibi": 2131,
      "##ılı": 2132,
      "##eni": 2133,
      "##zer": 2134,
      "201": 2135,
      "##ilm": 2136,
      "olduğ": 2137,
      "##ili": 2138,
      "kad": 2139,
      "##üy": 2140,
      "##ının": 2141,
      "Türk": 2142,
      "kur": 2143,
      "##öy": 2144,
      "her": 2145,
      "##bilir": 2146,
      "##ic": 2147,
      "##eş": 2148,
      "##aki": 2149,
      "konu": 2150,
      "uy": 2151,
      "##isi": 2152,
      "bel": 2153,
      "##us": 2154,
      "##abil": 2155,
      "##ecek": 2156,
      "##inden": 2157,
      "yıl": 2158,
      "##yon": 2159,
      "##alış": 2160,
      "##uş": 2161,
      "##ret": 2162,
      "var": 2163,
      "##aç": 2164,
      "An": 2165,
      "##aman": 2166,
      "##eki": 2167,
      "##ki": 2168,
      "##eğ": 2169,
      "##ara": 2170,
      "##os": 2171,
      "geç": 2172,
      "çık": 2173,
      "##ken": 2174,
      "##san": 2175,
      "yaş": 2176,
      "gibi": 2177,
      "gerek": 2178,
      "##eli": 2179,
      "##yla": 2180,
      "çalış": 2181,
      "sağ": 2182,
      "##ımız": 2183,
      "##eh": 2184,
      "##let": 2185,
      "##sa": 2186,
      "ek": 2187,
      "üzer": 2188,
      "##met": 2189,
      "ken": 2190,
      "##ist": 2191,
      "##ilen": 2192,
      "yar": 2193,
      "##eb": 2194,
      "##ark": 2195,
      "##ama": 2196,
      "##ınız": 2197,
      "##ru": 2198,
      "##eye": 2199,
      "##id": 2200,
      "##lara": 2201,
      "##larını": 2202,
      "öz": 2203,
      "##unda": 2204,
      "kal": 2205,
      "##lü": 2206,
      "##iyet": 2207,
      "yön": 2208,
      "bulun": 2209,
      "##öz": 2210,
      "##gi": 2211,
      "##ıyor": 2212,
      "kay": 2213,
      "zaman": 2214,
      "ola": 2215,
      "oy": 2216,
      "##lerin": 2217,
      "##üt": 2218,
      "##iyle": 2219,
      "##eri": 2220,
      "##şı": 2221,
      "##ot": 2222,
      "say": 2223,
      "##gu": 2224,
      "##men": 2225,
      "Baş": 2226,
      "on": 2227,
      "sor": 2228,
      "##aya": 2229,
      "olma": 2230,
      "##ers": 2231,
      "##asında": 2232,
      "##ans": 2233,
      "kadar": 2234,
      "##diğ": 2235,
      "##miş": 2236,
      "dur": 2237,
      "pro": 2238,
      "ko": 2239,
      "tek": 2240,
      "##dığ": 2241,
      "dev": 2242,
      "den": 2243,
      "##ılan": 2244,
      "##ac": 2245,
      "##art": 2246,
      "##üyük": 2247,
      "##daki": 2248,
      "##if": 2249,
      "##cu": 2250,
      "##ede": 2251,
      "taraf": 2252,
      "##ren": 2253,
      "##ep": 2254,
      "##ade": 2255,
      "yaz": 2256,
      "gü": 2257,
      "düş": 2258,
      "##aber": 2259,
      "##arı": 2260,
      "şek": 2261,
      "sah": 2262,
      "##çek": 2263,
      "##öl": 2264,
      "##larda": 2265,
      "##ter": 2266,
      "top": 2267,
      "##arak": 2268,
      "##dığı": 2269,
      "##öyle": 2270,
      "ak": 2271,
      "kat": 2272,
      "##unun": 2273,
      "doğ": 2274,
      "belir": 2275,
      "10": 2276,
      "##dım": 2277,
      "##uy": 2278,
      "##lat": 2279,
      "el": 2280,
      "Bir": 2281,
      "##tr": 2282,
      "Türkiye": 2283,
      "##imi": 2284,
      "##siniz": 2285,
      "dön": 2286,
      "alan": 2287,
      "nin": 2288,
      "kap": 2289,
      "##lam": 2290,
      "sonra": 2291,
      "ise": 2292,
      "##anlı": 2293,
      "yeni": 2294,
      "mü": 2295,
      "##ağı": 2296,
      "hak": 2297,
      "veya": 2298,
      "##lerini": 2299,
      "Ar": 2300,
      "##iyat": 2301,
      "##est": 2302,
      "##eleri": 2303,
      "kiş": 2304,
      "ama": 2305,
      "##lk": 2306,
      "##erek": 2307,
      "öğ": 2308,
      "##maya": 2309,
      "##mekte": 2310,
      "##ğer": 2311,
      "özel": 2312,
      "yak": 2313,
      "hay": 2314,
      "iy": 2315,
      "##ale": 2316,
      "##diği": 2317,
      "##elik": 2318,
      "##abilir": 2319,
      "tak": 2320,
      "açık": 2321,
      "##ef": 2322,
      "##adır": 2323,
      "##deki": 2324,
      "ev": 2325,
      "Al": 2326,
      "karşı": 2327,
      "##ten": 2328,
      "##uşt": 2329,
      "##sel": 2330,
      "##esinde": 2331,
      "##larının": 2332,
      "gir": 2333,
      "gerçek": 2334,
      "siz": 2335,
      "##dür": 2336,
      "##ster": 2337,
      "ın": 2338,
      "##oy": 2339,
      "büyük": 2340,
      "##ci": 2341,
      "##kin": 2342,
      "##re": 2343,
      "yük": 2344,
      "##ley": 2345,
      "##ram": 2346,
      "gen": 2347,
      "##üs": 2348,
      "##iv": 2349,
      "önem": 2350,
      "yan": 2351,
      "uz": 2352,
      "##makt": 2353,
      "düz": 2354,
      "yüz": 2355,
      "##izmet": 2356,
      "ben": 2357,
      "şekil": 2358,
      "sit": 2359,
      "yol": 2360,
      "ilg": 2361,
      "sev": 2362,
      "göre": 2363,
      "##una": 2364,
      "##ştir": 2365,
      "##lere": 2366,
      "hal": 2367,
      "##ada": 2368,
      "##iç": 2369,
      "##yan": 2370,
      "##atır": 2371,
      "##larına": 2372,
      "tarafından": 2373,
      "kaz": 2374,
      "19": 2375,
      "##mesi": 2376,
      "do": 2377,
      "##aret": 2378,
      "seç": 2379,
      "##oc": 2380,
      "kon": 2381,
      "hem": 2382,
      "neden": 2383,
      "Başk": 2384,
      "##maktadır": 2385,
      "ilk": 2386,
      "değil": 2387,
      "es": 2388,
      "##ğu": 2389,
      "insan": 2390,
      "##mektedir": 2391,
      "##ven": 2392,
      "durum": 2393,
      "##iştir": 2394,
      "fark": 2395,
      "bak": 2396,
      "##sı": 2397,
      "ad": 2398,
      "202": 2399,
      "iyi": 2400,
      "bağ": 2401,
      "##ıcı": 2402,
      "göster": 2403,
      "kend": 2404,
      "Ay": 2405,
      "şekilde": 2406,
      "ort": 2407,
      "böl": 2408,
      "biz": 2409,
      "##emiz": 2410,
      "##ER": 2411,
      "##eceğ": 2412,
      "##rı": 2413,
      "##uştur": 2414,
      "##od": 2415,
      "##aat": 2416,
      "##erk": 2417,
      "olduğu": 2418,
      "har": 2419,
      "##leştir": 2420,
      "ok": 2421,
      "Er": 2422,
      "##por": 2423,
      "hizmet": 2424,
      "##00": 2425,
      "##AR": 2426,
      "##ğit": 2427,
      "##tik": 2428,
      "##ileri": 2429,
      "##ran": 2430,
      "İn": 2431,
      "##ile": 2432,
      "##sun": 2433,
      "##larında": 2434,
      "##leş": 2435,
      "tüm": 2436,
      "çek": 2437,
      "alt": 2438,
      "##si": 2439,
      "##cel": 2440,
      "uygu": 2441,
      "##ünü": 2442,
      "##eyi": 2443,
      "##daş": 2444,
      "ih": 2445,
      "sat": 2446,
      "##yı": 2447,
      "##oz": 2448,
      "##uh": 2449,
      "##ika": 2450,
      "##dık": 2451,
      "bilg": 2452,
      "##etir": 2453,
      "##ısı": 2454,
      "alı": 2455,
      "mil": 2456,
      "iz": 2457,
      "##ıla": 2458,
      "##tar": 2459,
      "##siz": 2460,
      "sahip": 2461,
      "##liği": 2462,
      "##alık": 2463,
      "ser": 2464,
      "yet": 2465,
      "##AN": 2466,
      "has": 2467,
      "getir": 2468,
      "nın": 2469,
      "##uyor": 2470,
      "##azla": 2471,
      "##bet": 2472,
      "tarih": 2473,
      "un": 2474,
      "önce": 2475,
      "ki": 2476,
      "##han": 2477,
      "##istem": 2478,
      "devam": 2479,
      "der": 2480,
      "as": 2481,
      "##iğer": 2482,
      "##dur": 2483,
      "##olo": 2484,
      "ot": 2485,
      "##ece": 2486,
      "par": 2487,
      "##tık": 2488,
      "sır": 2489,
      "önemli": 2490,
      "kazan": 2491,
      "Kur": 2492,
      "ilgili": 2493,
      "##raf": 2494,
      "dün": 2495,
      "##dik": 2496,
      "değer": 2497,
      "fazla": 2498,
      "işlem": 2499,
      "öğren": 2500,
      "Bel": 2501,
      "##acak": 2502,
      "yok": 2503,
      "oyun": 2504,
      "##rün": 2505,
      "etti": 2506,
      "göz": 2507,
      "##up": 2508,
      "##bir": 2509,
      "##nı": 2510,
      "##dü": 2511,
      "##orum": 2512,
      "##enin": 2513,
      "aş": 2514,
      "##ça": 2515,
      "##iyas": 2516,
      "olduğunu": 2517,
      "er": 2518,
      "san": 2519,
      "ter": 2520,
      "##lah": 2521,
      "az": 2522,
      "te": 2523,
      "içer": 2524,
      "bin": 2525,
      "Öz": 2526,
      "edil": 2527,
      "söz": 2528,
      "ülk": 2529,
      "##lerde": 2530,
      "##ig": 2531,
      "##lardan": 2532,
      "##sek": 2533,
      "tut": 2534,
      "##ub": 2535,
      "ede": 2536,
      "##işim": 2537,
      "##ket": 2538,
      "##ğitim": 2539,
      "İst": 2540,
      "çalışma": 2541,
      "yay": 2542,
      "##esine": 2543,
      "Gün": 2544,
      "##ımı": 2545,
      "##liğ": 2546,
      "##lerinin": 2547,
      "##çe": 2548,
      "##lendir": 2549,
      "tan": 2550,
      "##ıp": 2551,
      "İş": 2552,
      "En": 2553,
      "bah": 2554,
      "##ocuk": 2555,
      "##oloj": 2556,
      "su": 2557,
      "alın": 2558,
      "##erkez": 2559,
      "##azı": 2560,
      "##ilik": 2561,
      "şey": 2562,
      "düzen": 2563,
      "##der": 2564,
      "kıs": 2565,
      "##ekt": 2566,
      "at": 2567,
      "##ulu": 2568,
      "Gen": 2569,
      "##lığı": 2570,
      "birlik": 2571,
      "arasında": 2572,
      "duy": 2573,
      "##asıl": 2574,
      "##siy": 2575,
      "##sız": 2576,
      "##lerine": 2577,
      "##esini": 2578,
      "##ala": 2579,
      "etk": 2580,
      "##ayan": 2581,
      "Ak": 2582,
      "güven": 2583,
      "##likle": 2584,
      "##leme": 2585,
      "##asyon": 2586,
      "hakk": 2587,
      "kor": 2588,
      "sonu": 2589,
      "sistem": 2590,
      "##ehir": 2591,
      "hayat": 2592,
      "ağ": 2593,
      "is": 2594,
      "##üzel": 2595,
      "##azır": 2596,
      "yaptı": 2597,
      "başla": 2598,
      "fiyat": 2599,
      "zor": 2600,
      "##ındaki": 2601,
      "taş": 2602,
      "Bak": 2603,
      "yatır": 2604,
      "##bul": 2605,
      "##dem": 2606,
      "##gun": 2607,
      "##ebilir": 2608,
      "##eniz": 2609,
      "Mü": 2610,
      "15": 2611,
      "12": 2612,
      "üret": 2613,
      "farklı": 2614,
      "diğer": 2615,
      "tem": 2616,
      "bek": 2617,
      "##larla": 2618,
      "##gram": 2619,
      "ürün": 2620,
      "##maz": 2621,
      "##cağ": 2622,
      "konus": 2623,
      "iki": 2624,
      "##ayı": 2625,
      "bas": 2626,
      "içinde": 2627,
      "##yal": 2628,
      "##fa": 2629,
      "##gün": 2630,
      "söyle": 2631,
      "tes": 2632,
      "olur": 2633,
      "##larımız": 2634,
      "dış": 2635,
      "##anbul": 2636,
      "##eyen": 2637,
      "##ide": 2638,
      "yapıl": 2639,
      "##eme": 2640,
      "##lığ": 2641,
      "##esin": 2642,
      "mes": 2643,
      "para": 2644,
      "yönet": 2645,
      "birlikte": 2646,
      "##rup": 2647,
      "öl": 2648,
      "gelen": 2649,
      "olacak": 2650,
      "##ilerin": 2651,
      "hazır": 2652,
      "ediyor": 2653,
      "##adece": 2654,
      "##emek": 2655,
      "##ünde": 2656,
      "saat": 2657,
      "olmak": 2658,
      "aynı": 2659,
      "ada": 2660,
      "Kar": 2661,
      "##kan": 2662,
      "##meye": 2663,
      "im": 2664,
      "##ızı": 2665,
      "Haber": 2666,
      "sun": 2667,
      "yapılan": 2668,
      "hiç": 2669,
      "##ing": 2670,
      "dik": 2671,
      "##üp": 2672,
      "##estek": 2673,
      "eden": 2674,
      "Başkanı": 2675,
      "Ek": 2676,
      "doğru": 2677,
      "dönem": 2678,
      "İs": 2679,
      "Pro": 2680,
      "##tü": 2681,
      "##asar": 2682,
      "##lanan": 2683,
      "11": 2684,
      "if": 2685,
      "kab": 2686,
      "##og": 2687,
      "##layan": 2688,
      "##kat": 2689,
      "##ort": 2690,
      "İstanbul": 2691,
      "##dığını": 2692,
      "Son": 2693,
      "dan": 2694,
      "##ne": 2695,
      "güzel": 2696,
      "Bil": 2697,
      "##irket": 2698,
      "İl": 2699,
      "##tür": 2700,
      "eş": 2701,
      "nasıl": 2702,
      "##ici": 2703,
      "kö": 2704,
      "##tiğ": 2705,
      "ör": 2706,
      "##masını": 2707,
      "Av": 2708,
      "Beled": 2709,
      "sen": 2710,
      "haf": 2711,
      "##lerinde": 2712,
      "tür": 2713,
      "ulaş": 2714,
      "arka": 2715,
      "##dar": 2716,
      "##mıştır": 2717,
      "üst": 2718,
      "bur": 2719,
      "düşün": 2720,
      "tama": 2721,
      "yüksek": 2722,
      "hes": 2723,
      "tekn": 2724,
      "bölg": 2725,
      "kam": 2726,
      "##net": 2727,
      "##det": 2728,
      "Or": 2729,
      "##masına": 2730,
      "##alan": 2731,
      "##eket": 2732,
      "boy": 2733,
      "##ilmesi": 2734,
      "çocuk": 2735,
      "yardım": 2736,
      "kim": 2737,
      "diye": 2738,
      "##ildi": 2739,
      "200": 2740,
      "##isinde": 2741,
      "kan": 2742,
      "##olu": 2743,
      "##sal": 2744,
      "ye": 2745,
      "mal": 2746,
      "##ov": 2747,
      "çıkar": 2748,
      "##kü": 2749,
      "sık": 2750,
      "##uma": 2751,
      "##larından": 2752,
      "destek": 2753,
      "görün": 2754,
      "haber": 2755,
      "##oş": 2756,
      "iliş": 2757,
      "##luk": 2758,
      "oluştur": 2759,
      "değiş": 2760,
      "##for": 2761,
      "##inizi": 2762,
      "sal": 2763,
      "yatırım": 2764,
      "##uv": 2765,
      "ban": 2766,
      "sadece": 2767,
      "görev": 2768,
      "##hur": 2769,
      "olması": 2770,
      "##oğlu": 2771,
      "##malı": 2772,
      "karar": 2773,
      "##ektör": 2774,
      "mak": 2775,
      "##EN": 2776,
      "kendi": 2777,
      "##abilirsiniz": 2778,
      "##min": 2779,
      "com": 2780,
      "##ütün": 2781,
      "ün": 2782,
      "##osyal": 2783,
      "ala": 2784,
      "ik": 2785,
      "##aba": 2786,
      "hav": 2787,
      "##atan": 2788,
      "tel": 2789,
      "dikkat": 2790,
      "belirt": 2791,
      "##mal": 2792,
      "art": 2793,
      "##esinin": 2794,
      "üy": 2795,
      "Cum": 2796,
      "##ahat": 2797,
      "bulunan": 2798,
      "##van": 2799,
      "Bur": 2800,
      "##tiy": 2801,
      "##unuz": 2802,
      "##ğü": 2803,
      "##iyorum": 2804,
      "##ıt": 2805,
      "tab": 2806,
      "mod": 2807,
      "##ivers": 2808,
      "genel": 2809,
      "uygun": 2810,
      "eğitim": 2811,
      "pay": 2812,
      "##İN": 2813,
      "olduk": 2814,
      "##cü": 2815,
      "ara": 2816,
      "##çi": 2817,
      "##lük": 2818,
      "##iversit": 2819,
      "##ılır": 2820,
      "##ore": 2821,
      "##cret": 2822,
      "kr": 2823,
      "##onom": 2824,
      "çev": 2825,
      "oyn": 2826,
      "gön": 2827,
      "hız": 2828,
      "gerçekleştir": 2829,
      "##lerden": 2830,
      "Genel": 2831,
      "##azar": 2832,
      "18": 2833,
      "##üne": 2834,
      "güç": 2835,
      "sav": 2836,
      "AB": 2837,
      "kit": 2838,
      "##ştır": 2839,
      "##ge": 2840,
      "dav": 2841,
      "##muş": 2842,
      "##rak": 2843,
      "bit": 2844,
      "üzere": 2845,
      "##ob": 2846,
      "##kı": 2847,
      "mut": 2848,
      "##sam": 2849,
      "hakkında": 2850,
      "önc": 2851,
      "kolay": 2852,
      "hat": 2853,
      "fir": 2854,
      "Es": 2855,
      "proj": 2856,
      "##gel": 2857,
      "##siyon": 2858,
      "sorun": 2859,
      "##rıca": 2860,
      "##ebil": 2861,
      "eder": 2862,
      "##AL": 2863,
      "şirket": 2864,
      "##usu": 2865,
      "sı": 2866,
      "##manın": 2867,
      "##üç": 2868,
      "Tar": 2869,
      "##lantı": 2870,
      "Tek": 2871,
      "14": 2872,
      "##mez": 2873,
      "##ırak": 2874,
      "##elerin": 2875,
      "##ilir": 2876,
      "##ET": 2877,
      "##anın": 2878,
      "kurul": 2879,
      "##lerle": 2880,
      "biri": 2881,
      "##üyor": 2882,
      "##las": 2883,
      "30": 2884,
      "fa": 2885,
      "13": 2886,
      "##tal": 2887,
      "bun": 2888,
      "kayn": 2889,
      "Ben": 2890,
      "##IN": 2891,
      "##ri": 2892,
      "##lerinden": 2893,
      "bazı": 2894,
      "Her": 2895,
      "Mil": 2896,
      "bile": 2897,
      "##eg": 2898,
      "ihtiy": 2899,
      "gid": 2900,
      "hareket": 2901,
      "16": 2902,
      "##ıldı": 2903,
      "##diğini": 2904,
      "Cumhur": 2905,
      "##iyoruz": 2906,
      "##duğu": 2907,
      "##enk": 2908,
      "##çok": 2909,
      "sağla": 2910,
      "##res": 2911,
      "çöz": 2912,
      "konuş": 2913,
      "üzerinde": 2914,
      "##eden": 2915,
      "##lak": 2916,
      "yür": 2917,
      "##ost": 2918,
      "##atı": 2919,
      "bırak": 2920,
      "nok": 2921,
      "geçir": 2922,
      "bahis": 2923,
      "uzun": 2924,
      "arkadaş": 2925,
      "mev": 2926,
      "##aştır": 2927,
      "##lerimiz": 2928,
      "##lenen": 2929,
      "##tem": 2930,
      "Ev": 2931,
      "##ümüz": 2932,
      "dedi": 2933,
      "##gan": 2934,
      "başka": 2935,
      "##mayı": 2936,
      "Ün": 2937,
      "kaç": 2938,
      "sonr": 2939,
      "muh": 2940,
      "##mi": 2941,
      "ortaya": 2942,
      "Dün": 2943,
      "merkez": 2944,
      "git": 2945,
      "##dından": 2946,
      "üzerine": 2947,
      "program": 2948,
      "##ılması": 2949,
      "oluş": 2950,
      "##bar": 2951,
      "San": 2952,
      "Kon": 2953,
      "17": 2954,
      "anlam": 2955,
      "##he": 2956,
      "##baş": 2957,
      "##EL": 2958,
      "##ternet": 2959,
      "##gil": 2960,
      "ücret": 2961,
      "plan": 2962,
      "##tığ": 2963,
      "seb": 2964,
      "##dim": 2965,
      "##eti": 2966,
      "##AK": 2967,
      "TL": 2968,
      "##uru": 2969,
      "etmek": 2970,
      "teş": 2971,
      "##aj": 2972,
      "##sanız": 2973,
      "Dev": 2974,
      "##obil": 2975,
      "tamam": 2976,
      "op": 2977,
      "Par": 2978,
      "##lum": 2979,
      "##eşit": 2980,
      "olabilir": 2981,
      "geliş": 2982,
      "kadın": 2983,
      "##bol": 2984,
      "tasar": 2985,
      "yas": 2986,
      "uygulama": 2987,
      "piyas": 2988,
      "pol": 2989,
      "##oh": 2990,
      "##gı": 2991,
      "ifade": 2992,
      "Yap": 2993,
      "El": 2994,
      "ancak": 2995,
      "tam": 2996,
      "Biz": 2997,
      "##sin": 2998,
      "2020": 2999,
      "##umuz": 3000,
      "##tif": 3001,
      "paylaş": 3002,
      "As": 3003,
      "##acağ": 3004,
      "##urt": 3005,
      "sağlık": 3006,
      "Yeni": 3007,
      "##ver": 3008,
      "##rar": 3009,
      "şu": 3010,
      "yüzde": 3011,
      "kişi": 3012,
      "mad": 3013,
      "ta": 3014,
      "met": 3015,
      "##meler": 3016,
      "##edef": 3017,
      "Müdür": 3018,
      "##ılım": 3019,
      "dil": 3020,
      "2021": 3021,
      "Ancak": 3022,
      "tr": 3023,
      "maç": 3024,
      "orta": 3025,
      "terc": 3026,
      "##yacak": 3027,
      "##trol": 3028,
      "##azet": 3029,
      "bilgi": 3030,
      "yorum": 3031,
      "açıklama": 3032,
      "yılında": 3033,
      "25": 3034,
      "##ladı": 3035,
      "##manız": 3036,
      "birçok": 3037,
      "araç": 3038,
      "Yıl": 3039,
      "yayın": 3040,
      "ziy": 3041,
      "##istan": 3042,
      "##dav": 3043,
      "##ilmiş": 3044,
      "##laştır": 3045,
      "kabul": 3046,
      "##suz": 3047,
      "##mer": 3048,
      "##efon": 3049,
      "##icaret": 3050,
      "bölüm": 3051,
      "##oğan": 3052,
      "gönder": 3053,
      "##ünkü": 3054,
      "başar": 3055,
      "tah": 3056,
      "ardından": 3057,
      "On": 3058,
      "görüş": 3059,
      "edilen": 3060,
      "mi": 3061,
      "bütün": 3062,
      "##İL": 3063,
      "##cek": 3064,
      "##elim": 3065,
      "üç": 3066,
      "##AT": 3067,
      "##lus": 3068,
      "yaklaş": 3069,
      "##mir": 3070,
      "##eceği": 3071,
      "##ele": 3072,
      "00": 3073,
      "içerisinde": 3074,
      "Özel": 3075,
      "konusunda": 3076,
      "##end": 3077,
      "dem": 3078,
      "##indeki": 3079,
      "Ön": 3080,
      "han": 3081,
      "##üçük": 3082,
      "##ıda": 3083,
      "milyon": 3084,
      "dünya": 3085,
      "kapsam": 3086,
      "##duğ": 3087,
      "##akat": 3088,
      "##tığı": 3089,
      "ABD": 3090,
      "karş": 3091,
      "çeşit": 3092,
      "Tem": 3093,
      "Yar": 3094,
      "##İR": 3095,
      "res": 3096,
      "Büyük": 3097,
      "film": 3098,
      "yakın": 3099,
      "kes": 3100,
      "tercih": 3101,
      "iste": 3102,
      "##anıt": 3103,
      "##landır": 3104,
      "yaşam": 3105,
      "bilin": 3106,
      "uç": 3107,
      "2019": 3108,
      "böyle": 3109,
      "##ınır": 3110,
      "##anlığı": 3111,
      "man": 3112,
      "##enek": 3113,
      "kom": 3114,
      "yapan": 3115,
      "din": 3116,
      "24": 3117,
      "##ültür": 3118,
      "##kün": 3119,
      "##cut": 3120,
      "##madan": 3121,
      "##ilere": 3122,
      "##isini": 3123,
      "olay": 3124,
      "##ent": 3125,
      "Kan": 3126,
      "his": 3127,
      "etm": 3128,
      "##ch": 3129,
      "Ser": 3130,
      "##gin": 3131,
      "bey": 3132,
      "dah": 3133,
      "kır": 3134,
      "öğrenc": 3135,
      "Avrup": 3136,
      "müşt": 3137,
      "kalit": 3138,
      "kurum": 3139,
      "vatan": 3140,
      "##ali": 3141,
      "yerine": 3142,
      "üzerinden": 3143,
      "2018": 3144,
      "hedef": 3145,
      "değerlendir": 3146,
      "sosyal": 3147,
      "At": 3148,
      "rahat": 3149,
      "Ne": 3150,
      "##asına": 3151,
      "##oğraf": 3152,
      "##bilirsiniz": 3153,
      "##ılacak": 3154,
      "İz": 3155,
      "Say": 3156,
      "nde": 3157,
      "mah": 3158,
      "id": 3159,
      "geliştir": 3160,
      "##ize": 3161,
      "##lo": 3162,
      "İç": 3163,
      "##çı": 3164,
      "##orex": 3165,
      "##oğu": 3166,
      "##may": 3167,
      "##lıyor": 3168,
      "##yonu": 3169,
      "kısa": 3170,
      "##ban": 3171,
      "süre": 3172,
      "dok": 3173,
      "tale": 3174,
      "##ıntı": 3175,
      "Ko": 3176,
      "##AS": 3177,
      "ayr": 3178,
      "Yön": 3179,
      "sonuç": 3180,
      "##landı": 3181,
      "##ES": 3182,
      "##izi": 3183,
      "##diğiniz": 3184,
      "##sınız": 3185,
      "##cad": 3186,
      "21": 3187,
      "ziyaret": 3188,
      "##sik": 3189,
      "gelir": 3190,
      "Kas": 3191,
      "Has": 3192,
      "kı": 3193,
      "hep": 3194,
      "sıra": 3195,
      "koy": 3196,
      "##isine": 3197,
      "##ök": 3198,
      "oran": 3199,
      "##kanı": 3200,
      "kontrol": 3201,
      "kullanıcı": 3202,
      "##arası": 3203,
      "nun": 3204,
      "##kara": 3205,
      "bugün": 3206,
      "yaşan": 3207,
      "Avrupa": 3208,
      "##OR": 3209,
      "##mam": 3210,
      "##ate": 3211,
      "kez": 3212,
      "dolay": 3213,
      "kav": 3214,
      "ekonom": 3215,
      "##oğun": 3216,
      "sektör": 3217,
      "zamanda": 3218,
      "##AM": 3219,
      "##hangi": 3220,
      "yaptığı": 3221,
      "Üniversit": 3222,
      "Top": 3223,
      "Mar": 3224,
      "dir": 3225,
      "##iyesi": 3226,
      "tur": 3227,
      "##akika": 3228,
      "##nek": 3229,
      "söy": 3230,
      "##AY": 3231,
      "##ust": 3232,
      "##etim": 3233,
      "yapmak": 3234,
      "bağlı": 3235,
      "##abı": 3236,
      "mas": 3237,
      "mey": 3238,
      "Kay": 3239,
      "müm": 3240,
      "##üşt": 3241,
      "2017": 3242,
      "##ira": 3243,
      "Mah": 3244,
      "taşı": 3245,
      "##ber": 3246,
      "vardır": 3247,
      "22": 3248,
      "##ektr": 3249,
      "##undan": 3250,
      "##uluk": 3251,
      "##gın": 3252,
      "##tin": 3253,
      "##EK": 3254,
      "Merkez": 3255,
      "elde": 3256,
      "Hak": 3257,
      "incel": 3258,
      "Ok": 3259,
      "##erli": 3260,
      "giriş": 3261,
      "başv": 3262,
      "Sağ": 3263,
      "Ey": 3264,
      "bor": 3265,
      "fır": 3266,
      "indir": 3267,
      "öğret": 3268,
      "telefon": 3269,
      "gereken": 3270,
      "mer": 3271,
      "mı": 3272,
      "Başkan": 3273,
      "çalışan": 3274,
      "hast": 3275,
      "kaynak": 3276,
      "Tr": 3277,
      "araştır": 3278,
      "for": 3279,
      "Dr": 3280,
      "Ban": 3281,
      "hesap": 3282,
      "23": 3283,
      "##unca": 3284,
      "diy": 3285,
      "iti": 3286,
      "takip": 3287,
      "##ayet": 3288,
      "##mel": 3289,
      "mümkün": 3290,
      "zar": 3291,
      "##oloji": 3292,
      "ma": 3293,
      "##LAR": 3294,
      "yen": 3295,
      "nedeniyle": 3296,
      "##üküm": 3297,
      "##miştir": 3298,
      "Ayrıca": 3299,
      "##lamak": 3300,
      "ber": 3301,
      "hafta": 3302,
      "oldukça": 3303,
      "AK": 3304,
      "##maları": 3305,
      "Der": 3306,
      "##aliyet": 3307,
      "##ekk": 3308,
      "size": 3309,
      "tav": 3310,
      "##alt": 3311,
      "yöntem": 3312,
      "##tu": 3313,
      "##imdi": 3314,
      "ses": 3315,
      "geri": 3316,
      "Gel": 3317,
      "büy": 3318,
      "##tur": 3319,
      "Bunun": 3320,
      "vur": 3321,
      "öde": 3322,
      "isim": 3323,
      "##üb": 3324,
      "ilet": 3325,
      "Ama": 3326,
      "Tur": 3327,
      "veren": 3328,
      "##doğan": 3329,
      "##taj": 3330,
      "günü": 3331,
      "##ayda": 3332,
      "altında": 3333,
      "geçen": 3334,
      "satış": 3335,
      "özellik": 3336,
      "##UR": 3337,
      "Ankara": 3338,
      "##sunuz": 3339,
      "per": 3340,
      "herhangi": 3341,
      "sınır": 3342,
      "seçim": 3343,
      "##muz": 3344,
      "##masının": 3345,
      "##pan": 3346,
      "artık": 3347,
      "Allah": 3348,
      "##lül": 3349,
      "##EM": 3350,
      "takım": 3351,
      "mik": 3352,
      "##larıyla": 3353,
      "model": 3354,
      "Hal": 3355,
      "##kinci": 3356,
      "##ılmış": 3357,
      "yağ": 3358,
      "##sil": 3359,
      "devlet": 3360,
      "cev": 3361,
      "mücad": 3362,
      "yüksel": 3363,
      "Şub": 3364,
      "##tiv": 3365,
      "##dak": 3366,
      "##erj": 3367,
      "##lim": 3368,
      "tat": 3369,
      "söyledi": 3370,
      "Haz": 3371,
      "##tiği": 3372,
      "##ari": 3373,
      "##laması": 3374,
      "kaldır": 3375,
      "benim": 3376,
      "##fer": 3377,
      "##umlu": 3378,
      "##meden": 3379,
      "kız": 3380,
      "vatandaş": 3381,
      "100": 3382,
      "##kek": 3383,
      "hiçbir": 3384,
      "##dana": 3385,
      "genç": 3386,
      "Oy": 3387,
      "soru": 3388,
      "spor": 3389,
      "toplum": 3390,
      "yarat": 3391,
      "hızlı": 3392,
      "##cağı": 3393,
      "Kad": 3394,
      "med": 3395,
      "Belediye": 3396,
      "mem": 3397,
      "##isinin": 3398,
      "##ünün": 3399,
      "Dünya": 3400,
      "Eğitim": 3401,
      "ilç": 3402,
      "temel": 3403,
      "May": 3404,
      "bar": 3405,
      "##asını": 3406,
      "##otoğraf": 3407,
      "2016": 3408,
      "##isk": 3409,
      "##HP": 3410,
      "tedav": 3411,
      "geldi": 3412,
      "etkin": 3413,
      "em": 3414,
      "##ow": 3415,
      "##ag": 3416,
      "hemen": 3417,
      "##din": 3418,
      "mar": 3419,
      "internet": 3420,
      "herk": 3421,
      "küçük": 3422,
      "50": 3423,
      "Daha": 3424,
      "yine": 3425,
      "anlaş": 3426,
      "gerekir": 3427,
      "mu": 3428,
      "yardımcı": 3429,
      "##ecektir": 3430,
      "##üsü": 3431,
      "canlı": 3432,
      "siyas": 3433,
      "engel": 3434,
      "İlk": 3435,
      "##ışma": 3436,
      "##ince": 3437,
      "##ON": 3438,
      "kil": 3439,
      "##rat": 3440,
      "##su": 3441,
      "##na": 3442,
      "##umu": 3443,
      "Hay": 3444,
      "rek": 3445,
      "almak": 3446,
      "##unuyor": 3447,
      "değişik": 3448,
      "##br": 3449,
      "pek": 3450,
      "##of": 3451,
      "##larınız": 3452,
      "yönelik": 3453,
      "of": 3454,
      "ekip": 3455,
      "çözüm": 3456,
      "##elere": 3457,
      "##amaz": 3458,
      "dep": 3459,
      "##lemek": 3460,
      "cez": 3461,
      "Rus": 3462,
      "##lüğü": 3463,
      "##iyi": 3464,
      "##to": 3465,
      "##ye": 3466,
      "Gü": 3467,
      "##eceğini": 3468,
      "olsun": 3469,
      "bunu": 3470,
      "olup": 3471,
      "##dın": 3472,
      "##ime": 3473,
      "bildir": 3474,
      "##mı": 3475,
      "tük": 3476,
      "faaliyet": 3477,
      "Erdoğan": 3478,
      "Uz": 3479,
      "##ij": 3480,
      "Böl": 3481,
      "konusu": 3482,
      "anla": 3483,
      "##alat": 3484,
      "sab": 3485,
      "fayda": 3486,
      "temiz": 3487,
      "Bey": 3488,
      "##şehir": 3489,
      "Gör": 3490,
      "##ekli": 3491,
      "##ite": 3492,
      "##ba": 3493,
      "##bo": 3494,
      "##leyen": 3495,
      "özellikle": 3496,
      "##ohbet": 3497,
      "##İK": 3498,
      "##co": 3499,
      "Bah": 3500,
      "ticaret": 3501,
      "adım": 3502,
      "değiştir": 3503,
      "##can": 3504,
      "itibar": 3505,
      "ait": 3506,
      "Bay": 3507,
      "oda": 3508,
      "##LER": 3509,
      "çevr": 3510,
      "Uy": 3511,
      "##be": 3512,
      "In": 3513,
      "##duk": 3514,
      "##imizin": 3515,
      "ağır": 3516,
      "sürec": 3517,
      "nda": 3518,
      "##afa": 3519,
      "eski": 3520,
      "Öğ": 3521,
      "kol": 3522,
      "##bak": 3523,
      "##ant": 3524,
      "##ilerini": 3525,
      "##kın": 3526,
      "ila": 3527,
      "##ve": 3528,
      "Mart": 3529,
      "koş": 3530,
      "##amp": 3531,
      "ilişk": 3532,
      "oluyor": 3533,
      "renk": 3534,
      "##İM": 3535,
      "##ucu": 3536,
      "beraber": 3537,
      "##AD": 3538,
      "kesin": 3539,
      "##yanın": 3540,
      "kitap": 3541,
      "##ift": 3542,
      "##İY": 3543,
      "bunun": 3544,
      "##isan": 3545,
      "sey": 3546,
      "##asının": 3547,
      "yeniden": 3548,
      "şeh": 3549,
      "okul": 3550,
      "Ve": 3551,
      "bizim": 3552,
      "web": 3553,
      "##elerde": 3554,
      "Forex": 3555,
      "##tor": 3556,
      "##dum": 3557,
      "##mem": 3558,
      "başladı": 3559,
      "deney": 3560,
      "##elerini": 3561,
      "sak": 3562,
      "ihtiyaç": 3563,
      "geniş": 3564,
      "##isyon": 3565,
      "cih": 3566,
      "Tekn": 3567,
      "tekrar": 3568,
      "##luslar": 3569,
      "savaş": 3570,
      "yapı": 3571,
      "##diğimiz": 3572,
      "serv": 3573,
      "##fes": 3574,
      "rağ": 3575,
      "uzak": 3576,
      "saldır": 3577,
      "##sat": 3578,
      "kut": 3579,
      "##lanması": 3580,
      "görül": 3581,
      "çağ": 3582,
      "vak": 3583,
      "İngil": 3584,
      "##AŞ": 3585,
      "##form": 3586,
      "Kal": 3587,
      "##lardır": 3588,
      "iddi": 3589,
      "##elen": 3590,
      "aracı": 3591,
      "gerekli": 3592,
      "Dem": 3593,
      "Ah": 3594,
      "##ere": 3595,
      "##ekkür": 3596,
      "satın": 3597,
      "nokta": 3598,
      "##ukuk": 3599,
      "##iran": 3600,
      "Üniversitesi": 3601,
      "Os": 3602,
      "çıkan": 3603,
      "olmayan": 3604,
      "anlat": 3605,
      "Kasım": 3606,
      "ortam": 3607,
      "##etay": 3608,
      "uğ": 3609,
      "sürdür": 3610,
      "##inize": 3611,
      "##asin": 3612,
      "##bi": 3613,
      "Em": 3614,
      "hüküm": 3615,
      "müz": 3616,
      "Güncel": 3617,
      "Do": 3618,
      "##lilik": 3619,
      "##cort": 3620,
      "sayesinde": 3621,
      "##rem": 3622,
      "str": 3623,
      "biraz": 3624,
      "Yan": 3625,
      "##ilerine": 3626,
      "rağmen": 3627,
      "yanı": 3628,
      "Mayıs": 3629,
      "##latform": 3630,
      "çeşitli": 3631,
      "ortak": 3632,
      "##iyeti": 3633,
      "##eğin": 3634,
      "##esinden": 3635,
      "değildir": 3636,
      "##imde": 3637,
      "diz": 3638,
      "dair": 3639,
      "##matik": 3640,
      "inan": 3641,
      "##üc": 3642,
      "mevcut": 3643,
      "##utbol": 3644,
      "eğ": 3645,
      "##tım": 3646,
      "Tarih": 3647,
      "Meh": 3648,
      "##sın": 3649,
      "oyuncu": 3650,
      "##line": 3651,
      "ilişkin": 3652,
      "##za": 3653,
      "ayrı": 3654,
      "##ebilirsiniz": 3655,
      "Har": 3656,
      "isteyen": 3657,
      "##ışı": 3658,
      "ask": 3659,
      "Mes": 3660,
      "##luslararası": 3661,
      "##masında": 3662,
      "yarar": 3663,
      "aşağı": 3664,
      "##bah": 3665,
      "Spor": 3666,
      "öner": 3667,
      "##ılıyor": 3668,
      "des": 3669,
      "##ulan": 3670,
      "##meyi": 3671,
      "amacı": 3672,
      "düny": 3673,
      "ele": 3674,
      "Ocak": 3675,
      "suç": 3676,
      "##asındaki": 3677,
      "Belediyesi": 3678,
      "##iğ": 3679,
      "talep": 3680,
      "firma": 3681,
      "##azi": 3682,
      "##fet": 3683,
      "sanat": 3684,
      "Eğer": 3685,
      "net": 3686,
      "##ınıf": 3687,
      "ner": 3688,
      "pazar": 3689,
      "##dığınız": 3690,
      "##aln": 3691,
      "dakika": 3692,
      "hava": 3693,
      "dolayı": 3694,
      "28": 3695,
      "##uan": 3696,
      "boz": 3697,
      "##dül": 3698,
      "##ıyoruz": 3699,
      "na": 3700,
      "alış": 3701,
      "Hav": 3702,
      "ail": 3703,
      "Temmuz": 3704,
      "kapsamında": 3705,
      "ders": 3706,
      "##isay": 3707,
      "##ısından": 3708,
      "##izm": 3709,
      "##leriyle": 3710,
      "Aç": 3711,
      "2015": 3712,
      "##lek": 3713,
      "olabil": 3714,
      "##şam": 3715,
      "##imize": 3716,
      "Ali": 3717,
      "zarar": 3718,
      "teknik": 3719,
      "şart": 3720,
      "##imizi": 3721,
      "birbir": 3722,
      "Tüm": 3723,
      "Ör": 3724,
      "##ola": 3725,
      "fotoğraf": 3726,
      "Su": 3727,
      "09": 3728,
      "##apor": 3729,
      "##LI": 3730,
      "Cumhurbaş": 3731,
      "yönetim": 3732,
      "##alar": 3733,
      "##deş": 3734,
      "edilm": 3735,
      "##üf": 3736,
      "amaç": 3737,
      "gerçekleş": 3738,
      "Sur": 3739,
      "dönüş": 3740,
      "##alnız": 3741,
      "fin": 3742,
      "Kom": 3743,
      "Ad": 3744,
      "elektr": 3745,
      "##teş": 3746,
      "dahil": 3747,
      "##üğ": 3748,
      "##lis": 3749,
      "yoğun": 3750,
      "##düğ": 3751,
      "çiz": 3752,
      "si": 3753,
      "Muh": 3754,
      "Sağlık": 3755,
      "uzman": 3756,
      "lis": 3757,
      "kullanıl": 3758,
      "##ela": 3759,
      "Eylül": 3760,
      "yani": 3761,
      "can": 3762,
      "##cağını": 3763,
      "##erson": 3764,
      "Nisan": 3765,
      "Et": 3766,
      "durumda": 3767,
      "olsa": 3768,
      "##ünden": 3769,
      "Kor": 3770,
      "27": 3771,
      "##redi": 3772,
      "##ısında": 3773,
      "hale": 3774,
      "##mey": 3775,
      "nedenle": 3776,
      "##ğa": 3777,
      "daki": 3778,
      "##esiyle": 3779,
      "26": 3780,
      "örg": 3781,
      "kültür": 3782,
      "##lüğ": 3783,
      "##ansı": 3784,
      "yapar": 3785,
      "Çünkü": 3786,
      "inş": 3787,
      "yaşa": 3788,
      "st": 3789,
      "bay": 3790,
      "boş": 3791,
      "olacaktır": 3792,
      "ip": 3793,
      "kayıt": 3794,
      "##ülen": 3795,
      "sizin": 3796,
      "##tiğini": 3797,
      "##muştur": 3798,
      "tık": 3799,
      "##isel": 3800,
      "Ab": 3801,
      "yaklaşık": 3802,
      "toplantı": 3803,
      "##ünüyor": 3804,
      "sitesi": 3805,
      "seçenek": 3806,
      "onun": 3807,
      "hiss": 3808,
      "##lanır": 3809,
      "Ekim": 3810,
      "##rim": 3811,
      "boyunca": 3812,
      "teh": 3813,
      "Yaz": 3814,
      "ölç": 3815,
      "##lanmış": 3816,
      "Haziran": 3817,
      "##yen": 3818,
      "##ideo": 3819,
      "##pit": 3820,
      "Amer": 3821,
      "Osman": 3822,
      "Aralık": 3823,
      "grup": 3824,
      "##taş": 3825,
      "ikinci": 3826,
      "işlet": 3827,
      "Doğ": 3828,
      "Man": 3829,
      "##tep": 3830,
      "Tak": 3831,
      "##itik": 3832,
      "gez": 3833,
      "edin": 3834,
      "##lında": 3835,
      "adı": 3836,
      "müşter": 3837,
      "Mer": 3838,
      "dışında": 3839,
      "##yle": 3840,
      "##aten": 3841,
      "##mat": 3842,
      "##eceğiniz": 3843,
      "##ıyorum": 3844,
      "benzer": 3845,
      "sok": 3846,
      "Parti": 3847,
      "dol": 3848,
      "##ğini": 3849,
      "Yük": 3850,
      "yat": 3851,
      "teşekkür": 3852,
      "beklen": 3853,
      "##ED": 3854,
      "şehir": 3855,
      "bakım": 3856,
      "İzmir": 3857,
      "sez": 3858,
      "##ınav": 3859,
      "##menin": 3860,
      "Ot": 3861,
      "kas": 3862,
      "dayan": 3863,
      "Bit": 3864,
      "sahibi": 3865,
      "##lin": 3866,
      "anda": 3867,
      "detay": 3868,
      "Mehmet": 3869,
      "madde": 3870,
      "burada": 3871,
      "##one": 3872,
      "ac": 3873,
      "adet": 3874,
      "##dığımız": 3875,
      "##lif": 3876,
      "##meli": 3877,
      "Yaş": 3878,
      "Alt": 3879,
      "güncel": 3880,
      "##mesini": 3881,
      "Devlet": 3882,
      "seviy": 3883,
      "##isayar": 3884,
      "##ener": 3885,
      "yi": 3886,
      "Kap": 3887,
      "erkek": 3888,
      "artır": 3889,
      "bilgiler": 3890,
      "rak": 3891,
      "Kat": 3892,
      "##alle": 3893,
      "ederek": 3894,
      "Ada": 3895,
      "##mayan": 3896,
      "Geç": 3897,
      "Ara": 3898,
      "dolar": 3899,
      "yemek": 3900,
      "enerj": 3901,
      "sar": 3902,
      "##elerinin": 3903,
      "hangi": 3904,
      "Alman": 3905,
      "yolu": 3906,
      "##tim": 3907,
      "çar": 3908,
      "Gir": 3909,
      "istiyor": 3910,
      "organ": 3911,
      "##ocu": 3912,
      "##kaç": 3913,
      "Hat": 3914,
      "##atif": 3915,
      "şekl": 3916,
      "##sta": 3917,
      "aldı": 3918,
      "##efer": 3919,
      "Ol": 3920,
      "##eği": 3921,
      "otur": 3922,
      "num": 3923,
      "üretim": 3924,
      "mağ": 3925,
      "40": 3926,
      "Söz": 3927,
      "##ital": 3928,
      "29": 3929,
      "##iyon": 3930,
      "halk": 3931,
      "tep": 3932,
      "##ört": 3933,
      "##akt": 3934,
      "av": 3935,
      "yetk": 3936,
      "##meniz": 3937,
      "01": 3938,
      "cihaz": 3939,
      "##yar": 3940,
      "##talya": 3941,
      "saç": 3942,
      "2022": 3943,
      "##ula": 3944,
      "sebep": 3945,
      "kah": 3946,
      "anal": 3947,
      "kalı": 3948,
      "##luluk": 3949,
      "edecek": 3950,
      "kuruluş": 3951,
      "malz": 3952,
      "##ınızı": 3953,
      "##cılık": 3954,
      "##esel": 3955,
      "gelecek": 3956,
      "İnsan": 3957,
      "##asyonu": 3958,
      "iletişim": 3959,
      "risk": 3960,
      "millet": 3961,
      "##ırı": 3962,
      "mek": 3963,
      "Çok": 3964,
      "mesaj": 3965,
      "Ch": 3966,
      "Deniz": 3967,
      "yazı": 3968,
      "gerekiyor": 3969,
      "##sak": 3970,
      "##asino": 3971,
      "kullanım": 3972,
      "##mesine": 3973,
      "2014": 3974,
      "adam": 3975,
      "##İZ": 3976,
      "ana": 3977,
      "##ons": 3978,
      "ettiği": 3979,
      "##yo": 3980,
      "hey": 3981,
      "verdi": 3982,
      "medya": 3983,
      "halinde": 3984,
      "aday": 3985,
      "tanı": 3986,
      "##atej": 3987,
      "süreç": 3988,
      "Ver": 3989,
      "##rafik": 3990,
      "men": 3991,
      "görüntü": 3992,
      "##meyen": 3993,
      "istem": 3994,
      "sohbet": 3995,
      "toplam": 3996,
      "tarihi": 3997,
      "gider": 3998,
      "##ebek": 3999,
      "deki": 4000,
      "##ast": 4001,
      "teknoloj": 4002,
      "karış": 4003,
      "##vet": 4004,
      "##IR": 4005,
      "kaybet": 4006,
      "##lanma": 4007,
      "cevap": 4008,
      "CHP": 4009,
      "Haberleri": 4010,
      "veril": 4011,
      "gazet": 4012,
      "##ÜN": 4013,
      "platform": 4014,
      "##şık": 4015,
      "##bu": 4016,
      "cid": 4017,
      "konuşt": 4018,
      "tespit": 4019,
      "bize": 4020,
      "şöyle": 4021,
      "adres": 4022,
      "açısından": 4023,
      "belg": 4024,
      "kişinin": 4025,
      "adına": 4026,
      "yaptığ": 4027,
      "##elerine": 4028,
      "sınıf": 4029,
      "onu": 4030,
      "bana": 4031,
      "verilen": 4032,
      "ister": 4033,
      "##tt": 4034,
      "doğal": 4035,
      "fik": 4036,
      "08": 4037,
      "05": 4038,
      "##anlar": 4039,
      "Çocuk": 4040,
      "##malıdır": 4041,
      "Ağu": 4042,
      "Kurulu": 4043,
      "çıktı": 4044,
      "Ter": 4045,
      "sin": 4046,
      "##ilerinin": 4047,
      "biç": 4048,
      "##üler": 4049,
      "karşılaş": 4050,
      "Konu": 4051,
      "düşük": 4052,
      "##etin": 4053,
      "Sav": 4054,
      "ayak": 4055,
      "##lenme": 4056,
      "##ind": 4057,
      "sıcak": 4058,
      "Gazet": 4059,
      "Sam": 4060,
      "##dıkları": 4061,
      "##ümü": 4062,
      "##lendi": 4063,
      "unut": 4064,
      "Güven": 4065,
      "türlü": 4066,
      "##vek": 4067,
      "2013": 4068,
      "Bar": 4069,
      "Pol": 4070,
      "Şubat": 4071,
      "##ga": 4072,
      "nit": 4073,
      "nak": 4074,
      "yanında": 4075,
      "##stos": 4076,
      "##layarak": 4077,
      "yürüt": 4078,
      "kullanılan": 4079,
      "##İS": 4080,
      "başarılı": 4081,
      "dile": 4082,
      "cin": 4083,
      "##imli": 4084,
      "post": 4085,
      "31": 4086,
      "temsil": 4087,
      "Değ": 4088,
      "##İT": 4089,
      "Sit": 4090,
      "yapılacak": 4091,
      "yalnız": 4092,
      "başarı": 4093,
      "araştırma": 4094,
      "sayf": 4095,
      "tüket": 4096,
      "geliyor": 4097,
      "02": 4098,
      "Kara": 4099,
      "##irüs": 4100,
      "oper": 4101,
      "pat": 4102,
      "Kır": 4103,
      "hasta": 4104,
      "hatır": 4105,
      "sürekli": 4106,
      "alıyor": 4107,
      "Must": 4108,
      "##egor": 4109,
      "banka": 4110,
      "##yas": 4111,
      "##meleri": 4112,
      "##ayın": 4113,
      "##ormal": 4114,
      "etkil": 4115,
      "##AB": 4116,
      "kötü": 4117,
      "nokt": 4118,
      "sistemi": 4119,
      "##AZ": 4120,
      "##pr": 4121,
      "Bun": 4122,
      "##ediye": 4123,
      "örnek": 4124,
      "tarihinde": 4125,
      "##makta": 4126,
      "dar": 4127,
      "##ÜR": 4128,
      "list": 4129,
      "terör": 4130,
      "kalan": 4131,
      "##yi": 4132,
      "tanım": 4133,
      "belli": 4134,
      "##edi": 4135,
      "##iliği": 4136,
      "kamu": 4137,
      "izin": 4138,
      "kayb": 4139,
      "##per": 4140,
      "##UN": 4141,
      "konuda": 4142,
      "Siz": 4143,
      "##üst": 4144,
      "Tab": 4145,
      "tasarım": 4146,
      "köy": 4147,
      "Kullan": 4148,
      "işaret": 4149,
      "sözleş": 4150,
      "##ınca": 4151,
      "sırasında": 4152,
      "tart": 4153,
      "##otor": 4154,
      "##ati": 4155,
      "##ıyla": 4156,
      "aktar": 4157,
      "güvenlik": 4158,
      "Bakanlığı": 4159,
      "kork": 4160,
      "Af": 4161,
      "##osu": 4162,
      "Han": 4163,
      "dö": 4164,
      "birkaç": 4165,
      "##ni": 4166,
      "yanlı": 4167,
      "##mıştı": 4168,
      "##abet": 4169,
      "part": 4170,
      "##ült": 4171,
      "##üle": 4172,
      "##lıkla": 4173,
      "##inc": 4174,
      "Ağustos": 4175,
      "##UL": 4176,
      "##coin": 4177,
      "Mustafa": 4178,
      "Yorum": 4179,
      "mez": 4180,
      "##imleri": 4181,
      "Kadın": 4182,
      "##uvar": 4183,
      "ücretsiz": 4184,
      "yurt": 4185,
      "derece": 4186,
      "##evi": 4187,
      "Res": 4188,
      "pan": 4189,
      "##liyor": 4190,
      "##abilecek": 4191,
      "Kr": 4192,
      "miktar": 4193,
      "kir": 4194,
      "Kür": 4195,
      "##ou": 4196,
      "##ınıza": 4197,
      "##ıza": 4198,
      "güçlü": 4199,
      "##erler": 4200,
      "##dığında": 4201,
      "Sen": 4202,
      "Çin": 4203,
      "##unma": 4204,
      "##cılar": 4205,
      "ekonomik": 4206,
      "##edik": 4207,
      "meydana": 4208,
      "hastan": 4209,
      "davran": 4210,
      "gec": 4211,
      "##gür": 4212,
      "hukuk": 4213,
      "Merkezi": 4214,
      "199": 4215,
      "edildi": 4216,
      "yık": 4217,
      "##ilebilir": 4218,
      "##elikle": 4219,
      "konuştu": 4220,
      "##ısıyla": 4221,
      "##eyin": 4222,
      "##adolu": 4223,
      "Bugün": 4224,
      "##elerinde": 4225,
      "##emizde": 4226,
      "##go": 4227,
      "##uyu": 4228,
      "kapat": 4229,
      "##ılma": 4230,
      "Yardım": 4231,
      "03": 4232,
      "dos": 4233,
      "rapor": 4234,
      "##aşı": 4235,
      "##yum": 4236,
      "ten": 4237,
      "Rusya": 4238,
      "alır": 4239,
      "hesab": 4240,
      "it": 4241,
      "ekran": 4242,
      "poz": 4243,
      "##resi": 4244,
      "kardeş": 4245,
      "Kam": 4246,
      "##etler": 4247,
      "##emin": 4248,
      "Fa": 4249,
      "sezon": 4250,
      "##mar": 4251,
      "giy": 4252,
      "Millet": 4253,
      "07": 4254,
      "##diğim": 4255,
      "zorunda": 4256,
      "herkes": 4257,
      "##forman": 4258,
      "##AP": 4259,
      "Milli": 4260,
      "Sosyal": 4261,
      "Tel": 4262,
      "Sev": 4263,
      "person": 4264,
      "ayrıca": 4265,
      "##ılabilir": 4266,
      "000": 4267,
      "##lerce": 4268,
      "bonu": 4269,
      "yaban": 4270,
      "##rik": 4271,
      "##ern": 4272,
      "Genç": 4273,
      "St": 4274,
      "doğr": 4275,
      "##cısı": 4276,
      "##fen": 4277,
      "kişiler": 4278,
      "şimdi": 4279,
      "##inci": 4280,
      "şah": 4281,
      "baz": 4282,
      "##ukarı": 4283,
      "Per": 4284,
      "çift": 4285,
      "##ii": 4286,
      "mobil": 4287,
      "sebeb": 4288,
      "##hat": 4289,
      "Büyükşehir": 4290,
      "##ttp": 4291,
      "Ger": 4292,
      "##acı": 4293,
      "##lüm": 4294,
      "polis": 4295,
      "sig": 4296,
      "##luğu": 4297,
      "arasındaki": 4298,
      "tamamen": 4299,
      "tip": 4300,
      "futbol": 4301,
      "akıl": 4302,
      "##blem": 4303,
      "bilim": 4304,
      "günlük": 4305,
      "yüzden": 4306,
      "şeklinde": 4307,
      "##IM": 4308,
      "##tiğimiz": 4309,
      "geçmiş": 4310,
      "ey": 4311,
      "katkı": 4312,
      "##ımda": 4313,
      "sonucu": 4314,
      "Anadolu": 4315,
      "koşul": 4316,
      "vü": 4317,
      "çer": 4318,
      "başvuru": 4319,
      "##iliğ": 4320,
      "ciddi": 4321,
      "ilan": 4322,
      "Prof": 4323,
      "http": 4324,
      "Kı": 4325,
      "parça": 4326,
      "ham": 4327,
      "çünkü": 4328,
      "06": 4329,
      "stratej": 4330,
      "bulundu": 4331,
      "bula": 4332,
      "##ılabil": 4333,
      "##liğini": 4334,
      "İşte": 4335,
      "Go": 4336,
      "katılım": 4337,
      "Böyle": 4338,
      "emek": 4339,
      "sonrası": 4340,
      "İslam": 4341,
      "##veriş": 4342,
      "##onik": 4343,
      "kart": 4344,
      "cam": 4345,
      "alma": 4346,
      "yaptır": 4347,
      "##ıldığı": 4348,
      "servis": 4349,
      "Yak": 4350,
      "##anlığ": 4351,
      "ülke": 4352,
      "##dız": 4353,
      "hastalık": 4354,
      "ah": 4355,
      "##miyor": 4356,
      "##iden": 4357,
      "mis": 4358,
      "yara": 4359,
      "##oda": 4360,
      "##eşil": 4361,
      "##ilerek": 4362,
      "çocu": 4363,
      "##log": 4364,
      "##ud": 4365,
      "##larınızı": 4366,
      "lid": 4367,
      "demek": 4368,
      "bilgisayar": 4369,
      "##aları": 4370,
      "ödeme": 4371,
      "Bakanı": 4372,
      "insanlar": 4373,
      "don": 4374,
      "video": 4375,
      "Bas": 4376,
      "##artesi": 4377,
      "Bul": 4378,
      "Haberler": 4379,
      "##eder": 4380,
      "itibaren": 4381,
      "Cumhurbaşkanı": 4382,
      "Müdürlüğü": 4383,
      "##olojik": 4384,
      "##alım": 4385,
      "Sal": 4386,
      "arama": 4387,
      "Oyun": 4388,
      "üniversit": 4389,
      "yıllık": 4390,
      "yaptık": 4391,
      "##DE": 4392,
      "amacıyla": 4393,
      "the": 4394,
      "milyar": 4395,
      "Bor": 4396,
      "Özellikle": 4397,
      "varsa": 4398,
      "04": 4399,
      "bes": 4400,
      "haline": 4401,
      "##ke": 4402,
      "ab": 4403,
      "##düğü": 4404,
      "bağlantı": 4405,
      "##nun": 4406,
      "deste": 4407,
      "2012": 4408,
      "##manı": 4409,
      "##inizin": 4410,
      "Aş": 4411,
      "##lıdır": 4412,
      "vermek": 4413,
      "sınav": 4414,
      "##neğin": 4415,
      "kural": 4416,
      "düşünüyor": 4417,
      "Mak": 4418,
      "##gisi": 4419,
      "puan": 4420,
      "Sor": 4421,
      "VE": 4422,
      "35": 4423,
      "başvur": 4424,
      "##altı": 4425,
      "##emesi": 4426,
      "##dıktan": 4427,
      "key": 4428,
      "Hizmet": 4429,
      "##iri": 4430,
      "Çalış": 4431,
      "aldığı": 4432,
      "dal": 4433,
      "bulunduğu": 4434,
      "Ana": 4435,
      "##imler": 4436,
      "edilir": 4437,
      "##emal": 4438,
      "##lenmesi": 4439,
      "test": 4440,
      "##luğ": 4441,
      "##lamaya": 4442,
      "isten": 4443,
      "##uştu": 4444,
      "örgüt": 4445,
      "alınan": 4446,
      "Sür": 4447,
      "kala": 4448,
      "verdiği": 4449,
      "ruh": 4450,
      "##ova": 4451,
      "##anıyor": 4452,
      "otel": 4453,
      "##fi": 4454,
      "##rac": 4455,
      "trans": 4456,
      "##unan": 4457,
      "başlayan": 4458,
      "Mec": 4459,
      "merak": 4460,
      "altına": 4461,
      "##pp": 4462,
      "yanlış": 4463,
      "##ogle": 4464,
      "##larca": 4465,
      "Yönet": 4466,
      "tec": 4467,
      "##laka": 4468,
      "silah": 4469,
      "basın": 4470,
      "sıkıntı": 4471,
      "Ağ": 4472,
      "kaliteli": 4473,
      "pak": 4474,
      "Oda": 4475,
      "##layın": 4476,
      "##ia": 4477,
      "sonunda": 4478,
      "boyut": 4479,
      "makin": 4480,
      "Ahmet": 4481,
      "hik": 4482,
      "problem": 4483,
      "Proj": 4484,
      "iler": 4485,
      "##lulu": 4486,
      "hizmeti": 4487,
      "sayısı": 4488,
      "##ân": 4489,
      "oluşan": 4490,
      "Kaz": 4491,
      "kul": 4492,
      "fırsat": 4493,
      "##diler": 4494,
      "performan": 4495,
      "Yüksek": 4496,
      "min": 4497,
      "düzenlenen": 4498,
      "##ceğ": 4499,
      "marka": 4500,
      "##book": 4501,
      "etme": 4502,
      "Kit": 4503,
      "Ülk": 4504,
      "öğretmen": 4505,
      "##neği": 4506,
      "##engin": 4507,
      "ann": 4508,
      "sağlar": 4509,
      "diyor": 4510,
      "##ayi": 4511,
      "sorum": 4512,
      "##dikleri": 4513,
      "am": 4514,
      "düzey": 4515,
      "##eks": 4516,
      "kredi": 4517,
      "Demir": 4518,
      "##ser": 4519,
      "Hem": 4520,
      "bulunmaktadır": 4521,
      "esn": 4522,
      "sonrasında": 4523,
      "##lev": 4524,
      "izle": 4525,
      "##panya": 4526,
      "giz": 4527,
      "dünyanın": 4528,
      "##ücü": 4529,
      "eksik": 4530,
      "##air": 4531,
      "verir": 4532,
      "Aynı": 4533,
      "zaten": 4534,
      "mücadele": 4535,
      "Bin": 4536,
      "##OL": 4537,
      "teklif": 4538,
      "##üme": 4539,
      "##eci": 4540,
      "anlay": 4541,
      "olmaz": 4542,
      "kelim": 4543,
      "escort": 4544,
      "##asından": 4545,
      "yı": 4546,
      "##eğen": 4547,
      "ted": 4548,
      "##diğinde": 4549,
      "Can": 4550,
      "opsiyon": 4551,
      "etkili": 4552,
      "##üştür": 4553,
      "Cumhuriyet": 4554,
      "##ünüz": 4555,
      "yeterli": 4556,
      "##ilendir": 4557,
      "##uar": 4558,
      "##üncü": 4559,
      "sol": 4560,
      "teslim": 4561,
      "avan": 4562,
      "##müş": 4563,
      "Beş": 4564,
      "DE": 4565,
      "nedir": 4566,
      "end": 4567,
      "##ST": 4568,
      "Mal": 4569,
      "yabancı": 4570,
      "sunu": 4571,
      "##kası": 4572,
      "vurgu": 4573,
      "oku": 4574,
      "çalı": 4575,
      "Yani": 4576,
      "##ımıza": 4577,
      "Açık": 4578,
      "kent": 4579,
      "##usunda": 4580,
      "stan": 4581,
      "ku": 4582,
      "araya": 4583,
      "dönemde": 4584,
      "yav": 4585,
      "fakat": 4586,
      "Ro": 4587,
      "artış": 4588,
      "mücadel": 4589,
      "Sat": 4590,
      "hatta": 4591,
      "##lerdir": 4592,
      "gar": 4593,
      "yerde": 4594,
      "bab": 4595,
      "avantaj": 4596,
      "reklam": 4597,
      "durumu": 4598,
      "yum": 4599,
      "##AH": 4600,
      "insanların": 4601,
      "İngiliz": 4602,
      "##izyon": 4603,
      "##lığını": 4604,
      "yapıyor": 4605,
      "##eng": 4606,
      "yapma": 4607,
      "##dip": 4608,
      "gece": 4609,
      "##ısını": 4610,
      "Fakat": 4611,
      "##yonel": 4612,
      "günde": 4613,
      "##asa": 4614,
      "##emi": 4615,
      "hayvan": 4616,
      "aslında": 4617,
      "##UM": 4618,
      "re": 4619,
      "##enüz": 4620,
      "Diğer": 4621,
      "Bursa": 4622,
      "##IL": 4623,
      "##oya": 4624,
      "##dük": 4625,
      "##ijital": 4626,
      "gru": 4627,
      "##ha": 4628,
      "Samsun": 4629,
      "##etr": 4630,
      "başkan": 4631,
      "memnun": 4632,
      "Suriye": 4633,
      "##etik": 4634,
      "edilmesi": 4635,
      "um": 4636,
      "İk": 4637,
      "birey": 4638,
      "##ton": 4639,
      "mark": 4640,
      "##lım": 4641,
      "değişiklik": 4642,
      "Diy": 4643,
      "Fat": 4644,
      "##fesyonel": 4645,
      "mutlu": 4646,
      "##deniz": 4647,
      "başına": 4648,
      "beni": 4649,
      "gerçekten": 4650,
      "##fak": 4651,
      "onay": 4652,
      "yana": 4653,
      "bulunuyor": 4654,
      "##inç": 4655,
      "yaşayan": 4656,
      "durumunda": 4657,
      "vardı": 4658,
      "##ilmiştir": 4659,
      "##tern": 4660,
      "Kültür": 4661,
      "##amız": 4662,
      "li": 4663,
      "Yönetim": 4664,
      "sayıda": 4665,
      "dört": 4666,
      "normal": 4667,
      "kararı": 4668,
      "piyasa": 4669,
      "##adde": 4670,
      "deniz": 4671,
      "##ww": 4672,
      "uyar": 4673,
      "##çev": 4674,
      "bağım": 4675,
      "kendini": 4676,
      "Müdürü": 4677,
      "##str": 4678,
      "##abz": 4679,
      "45": 4680,
      "edebil": 4681,
      "etkinlik": 4682,
      "##ipar": 4683,
      "yazar": 4684,
      "ilaç": 4685,
      "##seniz": 4686,
      "##eyn": 4687,
      "##atürk": 4688,
      "Kö": 4689,
      "öldür": 4690,
      "hoş": 4691,
      "##emez": 4692,
      "##tıyor": 4693,
      "Se": 4694,
      "sonuc": 4695,
      "oto": 4696,
      "##dığım": 4697,
      "Sar": 4698,
      "##masından": 4699,
      "Bet": 4700,
      "Part": 4701,
      "##nak": 4702,
      "##malar": 4703,
      "sizi": 4704,
      "ona": 4705,
      "##omobil": 4706,
      "içerik": 4707,
      "500": 4708,
      "##ilecek": 4709,
      "dost": 4710,
      "Yer": 4711,
      "içeri": 4712,
      "yılı": 4713,
      "olun": 4714,
      "ölüm": 4715,
      "##ımızda": 4716,
      "##ros": 4717,
      "##gesi": 4718,
      "##yız": 4719,
      "başlat": 4720,
      "##siye": 4721,
      "ayında": 4722,
      "##ult": 4723,
      "##ampiyon": 4724,
      "##DA": 4725,
      "Gö": 4726,
      "mahk": 4727,
      "##niyet": 4728,
      "Bağ": 4729,
      "belirten": 4730,
      "##cuz": 4731,
      "gol": 4732,
      "www": 4733,
      "Fran": 4734,
      "60": 4735,
      "##mamız": 4736,
      "##lanacak": 4737,
      "olmadığını": 4738,
      "ayar": 4739,
      "etmiş": 4740,
      "vaz": 4741,
      "Tan": 4742,
      "bi": 4743,
      "sene": 4744,
      "ettik": 4745,
      "##ratik": 4746,
      "##lenmiş": 4747,
      "##lanıyor": 4748,
      "cil": 4749,
      "ödül": 4750,
      "yaparak": 4751,
      "doktor": 4752,
      "##cebook": 4753,
      "Güncelleme": 4754,
      "yaşanan": 4755,
      "mekan": 4756,
      "saldırı": 4757,
      "şid": 4758,
      "motor": 4759,
      "bayan": 4760,
      "açı": 4761,
      "##mızı": 4762,
      "##spor": 4763,
      "posta": 4764,
      "##sine": 4765,
      "Çev": 4766,
      "##mıyor": 4767,
      "sp": 4768,
      "öyle": 4769,
      "Sayfa": 4770,
      "##izik": 4771,
      "##lâ": 4772,
      "tedavi": 4773,
      "analiz": 4774,
      "##işi": 4775,
      "##vekili": 4776,
      "kısm": 4777,
      "and": 4778,
      "alım": 4779,
      "Lis": 4780,
      "Atatürk": 4781,
      "Seç": 4782,
      "##ören": 4783,
      "For": 4784,
      "##larımızın": 4785,
      "##imin": 4786,
      "Ma": 4787,
      "sağlamak": 4788,
      "buna": 4789,
      "##lasyon": 4790,
      "tarz": 4791,
      "du": 4792,
      "ler": 4793,
      "siteleri": 4794,
      "nerede": 4795,
      "Antalya": 4796,
      "dağı": 4797,
      "Bakan": 4798,
      "gerektiğini": 4799,
      "##sen": 4800,
      "##arkı": 4801,
      "güvenilir": 4802,
      "##örü": 4803,
      "resmi": 4804,
      "yapılması": 4805,
      "kullanarak": 4806,
      "kaf": 4807,
      "başında": 4808,
      "ic": 4809,
      "##üph": 4810,
      "##rek": 4811,
      "##leti": 4812,
      "sağlıklı": 4813,
      "iddia": 4814,
      "##aşa": 4815,
      "Hakk": 4816,
      "tesis": 4817,
      "2011": 4818,
      "önceki": 4819,
      "##üper": 4820,
      "##dit": 4821,
      "##uvvet": 4822,
      "##dah": 4823,
      "##20": 4824,
      "##lıklı": 4825,
      "müşteri": 4826,
      "form": 4827,
      "site": 4828,
      "##umsuz": 4829,
      "elektrik": 4830,
      "Sistem": 4831,
      "uluslararası": 4832,
      "girişim": 4833,
      "##adaki": 4834,
      "##ısına": 4835,
      "yere": 4836,
      "Müs": 4837,
      "duyur": 4838,
      "İh": 4839,
      "gerekmektedir": 4840,
      "yoktur": 4841,
      "ettiğ": 4842,
      "alanında": 4843,
      "Google": 4844,
      "ka": 4845,
      "alanda": 4846,
      "beş": 4847,
      "personel": 4848,
      "##ikayet": 4849,
      "##ğın": 4850,
      "AL": 4851,
      "yazılım": 4852,
      "finans": 4853,
      "Hastan": 4854,
      "##ras": 4855,
      "Dur": 4856,
      "laz": 4857,
      "uygula": 4858,
      "sizlere": 4859,
      "alacak": 4860,
      "zengin": 4861,
      "##iliyor": 4862,
      "Film": 4863,
      "##gar": 4864,
      "uçak": 4865,
      "uğr": 4866,
      "##ack": 4867,
      "siyasi": 4868,
      "görmek": 4869,
      "##zu": 4870,
      "Almanya": 4871,
      "Aydın": 4872,
      "casino": 4873,
      "çarp": 4874,
      "##ağa": 4875,
      "çerçev": 4876,
      "Bitcoin": 4877,
      "##amak": 4878,
      "ceza": 4879,
      "##lisi": 4880,
      "arada": 4881,
      "##ku": 4882,
      "operasyon": 4883,
      "Mahalle": 4884,
      "yandan": 4885,
      "##mayacak": 4886,
      "Sanat": 4887,
      "online": 4888,
      "yapılır": 4889,
      "rol": 4890,
      "kuş": 4891,
      "##dart": 4892,
      "Başbak": 4893,
      "defa": 4894,
      "##sim": 4895,
      "##âr": 4896,
      "##istik": 4897,
      "akşam": 4898,
      "##ulması": 4899,
      "kamer": 4900,
      "##ırken": 4901,
      "##itika": 4902,
      "##tığını": 4903,
      "pop": 4904,
      "Türkçe": 4905,
      "fon": 4906,
      "neler": 4907,
      "##eceğiz": 4908,
      "##wit": 4909,
      "beyaz": 4910,
      "bahs": 4911,
      "ilgi": 4912,
      "Ürün": 4913,
      "kurt": 4914,
      "Pazar": 4915,
      "olmadığı": 4916,
      "##IK": 4917,
      "po": 4918,
      "sağlayan": 4919,
      "enerji": 4920,
      "Kim": 4921,
      "asker": 4922,
      "##med": 4923,
      "Şimdi": 4924,
      "yarış": 4925,
      "##ülü": 4926,
      "The": 4927,
      "##sef": 4928,
      "##duğunu": 4929,
      "##ınızda": 4930,
      "##ina": 4931,
      "##tion": 4932,
      "##uzey": 4933,
      "##enler": 4934,
      "kişisel": 4935,
      "##lamaz": 4936,
      "eser": 4937,
      "Fiyat": 4938,
      "Met": 4939,
      "##mayın": 4940,
      "açıklamada": 4941,
      "önünde": 4942,
      "toprak": 4943,
      "##üya": 4944,
      "karak": 4945,
      "Düz": 4946,
      "##lıklar": 4947,
      "mutlaka": 4948,
      "##50": 4949,
      "##iir": 4950,
      "Gül": 4951,
      "Lig": 4952,
      "se": 4953,
      "##işleri": 4954,
      "sayılı": 4955,
      "##tere": 4956,
      "##adan": 4957,
      "ileri": 4958,
      "##çiler": 4959,
      "eğlen": 4960,
      "ediyorum": 4961,
      "##elerden": 4962,
      "##imizde": 4963,
      "bilet": 4964,
      "henüz": 4965,
      "##OS": 4966,
      "nes": 4967,
      "kanal": 4968,
      "mük": 4969,
      "##larım": 4970,
      "Kemal": 4971,
      "##asay": 4972,
      "hayal": 4973,
      "götür": 4974,
      "İyi": 4975,
      "Tarihi": 4976,
      "alışveriş": 4977,
      "eğer": 4978,
      "merkezi": 4979,
      "Sh": 4980,
      "düşünc": 4981,
      "beri": 4982,
      "adlı": 4983,
      "basit": 4984,
      "zam": 4985,
      "##ink": 4986,
      "keş": 4987,
      "##par": 4988,
      "istiyorum": 4989,
      "##ilebil": 4990,
      "Trabz": 4991,
      "Koca": 4992,
      "Burada": 4993,
      "devr": 4994,
      "derec": 4995,
      "Orta": 4996,
      "söyley": 4997,
      "ayır": 4998,
      "##ımızı": 4999,
      "tanıt": 5000,
      "Öğren": 5001,
      "hala": 5002,
      "##ıma": 5003,
      "arttır": 5004,
      "Gök": 5005,
      "36": 5006,
      "eylem": 5007,
      "imza": 5008,
      "Ort": 5009,
      "##çak": 5010,
      "##ümüzde": 5011,
      "##rüb": 5012,
      "fikir": 5013,
      "##ona": 5014,
      "başlan": 5015,
      "Dav": 5016,
      "Tes": 5017,
      "özgür": 5018,
      "##layıcı": 5019,
      "Program": 5020,
      "altın": 5021,
      "tarif": 5022,
      "##acağı": 5023,
      "cep": 5024,
      "##ciler": 5025,
      "##lusal": 5026,
      "##eksiyon": 5027,
      "sahiptir": 5028,
      "İnternet": 5029,
      "##hend": 5030,
      "##lerinizi": 5031,
      "sayfa": 5032,
      "##ımızın": 5033,
      "Önc": 5034,
      "##amı": 5035,
      "olmuş": 5036,
      "ifad": 5037,
      "##LE": 5038,
      "Nasıl": 5039,
      "Ticaret": 5040,
      "##medi": 5041,
      "Fener": 5042,
      "döv": 5043,
      "Br": 5044,
      "müdah": 5045,
      "kazanç": 5046,
      "##cağız": 5047,
      "Bilg": 5048,
      "Osmanlı": 5049,
      "kaydet": 5050,
      "Mod": 5051,
      "malzem": 5052,
      "ro": 5053,
      "Ac": 5054,
      "And": 5055,
      "Tay": 5056,
      "genellikle": 5057,
      "gay": 5058,
      "Gazi": 5059,
      "çalışmaları": 5060,
      "##iber": 5061,
      "dek": 5062,
      "eğit": 5063,
      "##elidir": 5064,
      "dışı": 5065,
      "##madı": 5066,
      "kür": 5067,
      "yapacak": 5068,
      "başta": 5069,
      "##retim": 5070,
      "Çan": 5071,
      "##ana": 5072,
      "##teki": 5073,
      "Üy": 5074,
      "##ard": 5075,
      "##inizde": 5076,
      "##kadem": 5077,
      "##bahçe": 5078,
      "##lenir": 5079,
      "Alan": 5080,
      "tehlik": 5081,
      "odak": 5082,
      "ıs": 5083,
      "öğrenciler": 5084,
      "##yası": 5085,
      "Dön": 5086,
      "ateş": 5087,
      "Göz": 5088,
      "aray": 5089,
      "bilgileri": 5090,
      "Birliği": 5091,
      "okuy": 5092,
      "not": 5093,
      "aile": 5094,
      "##alatasar": 5095,
      "##ediy": 5096,
      "##lığın": 5097,
      "olumsuz": 5098,
      "Gön": 5099,
      "Şirket": 5100,
      "##asayfa": 5101,
      "doldur": 5102,
      "Ken": 5103,
      "yanıt": 5104,
      "ihtiyac": 5105,
      "veriyor": 5106,
      "üye": 5107,
      "Ekonom": 5108,
      "##geç": 5109,
      "müzik": 5110,
      "##zet": 5111,
      "##alatasaray": 5112,
      "##uğ": 5113,
      "##larımızı": 5114,
      "2010": 5115,
      "Kah": 5116,
      "parç": 5117,
      "soğ": 5118,
      "değerli": 5119,
      "ora": 5120,
      "bonus": 5121,
      "idar": 5122,
      "##ladığı": 5123,
      "Sel": 5124,
      "gösteren": 5125,
      "##dam": 5126,
      "konum": 5127,
      "bizi": 5128,
      "##ullah": 5129,
      "alarak": 5130,
      "##AC": 5131,
      "##üştü": 5132,
      "arası": 5133,
      "hayatını": 5134,
      "çoğu": 5135,
      "Val": 5136,
      "Te": 5137,
      "oğ": 5138,
      "hastalı": 5139,
      "lira": 5140,
      "kayde": 5141,
      "Uygu": 5142,
      "Amerika": 5143,
      "##ipariş": 5144,
      "yukarı": 5145,
      "tahmin": 5146,
      "çevir": 5147,
      "istediğiniz": 5148,
      "Cev": 5149,
      "##terek": 5150,
      "kazandır": 5151,
      "##rin": 5152,
      "##ansız": 5153,
      "Kend": 5154,
      "##liye": 5155,
      "faiz": 5156,
      "Yayın": 5157,
      "belki": 5158,
      "Müz": 5159,
      "Halk": 5160,
      "Anasayfa": 5161,
      "Bazı": 5162,
      "belirli": 5163,
      "32": 5164,
      "##are": 5165,
      "##yıl": 5166,
      "çat": 5167,
      "İçin": 5168,
      "Re": 5169,
      "Araştır": 5170,
      "##ıştır": 5171,
      "haft": 5172,
      "paket": 5173,
      "90": 5174,
      "##gen": 5175,
      "##bay": 5176,
      "derin": 5177,
      "Sak": 5178,
      "AN": 5179,
      "##uzur": 5180,
      "profesyonel": 5181,
      "mec": 5182,
      "diş": 5183,
      "##İŞ": 5184,
      "aracılığı": 5185,
      "##10": 5186,
      "eleştir": 5187,
      "##best": 5188,
      "sunuyor": 5189,
      "ünlü": 5190,
      "Fir": 5191,
      "görüyor": 5192,
      "içine": 5193,
      "kapı": 5194,
      "##ipto": 5195,
      "##gili": 5196,
      "lik": 5197,
      "güvenli": 5198,
      "##iyah": 5199,
      "Müslüm": 5200,
      "##üyle": 5201,
      "##uc": 5202,
      "sayı": 5203,
      "##içek": 5204,
      "proje": 5205,
      "tavsiye": 5206,
      "##sul": 5207,
      "##uro": 5208,
      "Kıs": 5209,
      "HD": 5210,
      "lider": 5211,
      "Dış": 5212,
      "##dağ": 5213,
      "##iktaş": 5214,
      "##kenin": 5215,
      "Mur": 5216,
      "##sas": 5217,
      "##dikten": 5218,
      "içi": 5219,
      "üz": 5220,
      "sefer": 5221,
      "##laşma": 5222,
      "##anan": 5223,
      "Un": 5224,
      "demok": 5225,
      "sem": 5226,
      "##rika": 5227,
      "dağ": 5228,
      "##ly": 5229,
      "şiddet": 5230,
      "borç": 5231,
      "##IZ": 5232,
      "##unları": 5233,
      "yayım": 5234,
      "halde": 5235,
      "tutuk": 5236,
      "yapmış": 5237,
      "tecrüb": 5238,
      "la": 5239,
      "şüph": 5240,
      "Cam": 5241,
      "##ze": 5242,
      "##rail": 5243,
      "kalk": 5244,
      "yalnızca": 5245,
      "sırada": 5246,
      "Haf": 5247,
      "enf": 5248,
      "AR": 5249,
      "##say": 5250,
      "kendisine": 5251,
      "belirtti": 5252,
      "lim": 5253,
      "##emmel": 5254,
      "##eliğ": 5255,
      "fiyatları": 5256,
      "tartış": 5257,
      "##OK": 5258,
      "##lığa": 5259,
      "##witter": 5260,
      "söylem": 5261,
      "yolc": 5262,
      "hayata": 5263,
      "gören": 5264,
      "olmaya": 5265,
      "ediyoruz": 5266,
      "##sızlık": 5267,
      "##ivil": 5268,
      "yavaş": 5269,
      "öne": 5270,
      "olursa": 5271,
      "şar": 5272,
      "Galatasaray": 5273,
      "kıy": 5274,
      "Sah": 5275,
      "Etik": 5276,
      "kims": 5277,
      "Yüz": 5278,
      "taşıma": 5279,
      "Yatır": 5280,
      "heyec": 5281,
      "emin": 5282,
      "Web": 5283,
      "Ham": 5284,
      "aylık": 5285,
      "##abiliyor": 5286,
      "Dan": 5287,
      "ikti": 5288,
      "##ılış": 5289,
      "kategor": 5290,
      "day": 5291,
      "beğen": 5292,
      "Sab": 5293,
      "izley": 5294,
      "sur": 5295,
      "198": 5296,
      "Eş": 5297,
      "##onav": 5298,
      "##lal": 5299,
      "##tarı": 5300,
      "ürünleri": 5301,
      "##gam": 5302,
      "sürede": 5303,
      "dam": 5304,
      "##asıyla": 5305,
      "##izasyon": 5306,
      "OL": 5307,
      "acı": 5308,
      "konuşma": 5309,
      "yatırımcı": 5310,
      "##esindeki": 5311,
      "sabah": 5312,
      "önüne": 5313,
      "duygu": 5314,
      "şeyler": 5315,
      "Şu": 5316,
      "##racat": 5317,
      "##inal": 5318,
      "işi": 5319,
      "karakter": 5320,
      "kok": 5321,
      "##hi": 5322,
      "##edeki": 5323,
      "##esiz": 5324,
      "Üst": 5325,
      "Kız": 5326,
      "##cisi": 5327,
      "lisans": 5328,
      "tutar": 5329,
      "Çar": 5330,
      "yapacağ": 5331,
      "Sp": 5332,
      "yararlan": 5333,
      "İlçe": 5334,
      "##ılmaz": 5335,
      "mesaf": 5336,
      "eşya": 5337,
      "alanı": 5338,
      "otomobil": 5339,
      "##dıklarını": 5340,
      "değişim": 5341,
      "uygulan": 5342,
      "##eyle": 5343,
      "No": 5344,
      "yeri": 5345,
      "ül": 5346,
      "##oker": 5347,
      "##ısının": 5348,
      "performans": 5349,
      "Örneğin": 5350,
      "iptal": 5351,
      "şeyi": 5352,
      "TV": 5353,
      "aktif": 5354,
      "yaşındaki": 5355,
      "Med": 5356,
      "Derneği": 5357,
      "Vak": 5358,
      "dolu": 5359,
      "eg": 5360,
      "maliyet": 5361,
      "##yse": 5362,
      "##ahim": 5363,
      "deneyim": 5364,
      "yerel": 5365,
      "80": 5366,
      "##bur": 5367,
      "##lacak": 5368,
      "##mail": 5369,
      "##imar": 5370,
      "##liğinde": 5371,
      "to": 5372,
      "##mür": 5373,
      "##KK": 5374,
      "bal": 5375,
      "taz": 5376,
      "Bal": 5377,
      "Var": 5378,
      "birisi": 5379,
      "şans": 5380,
      "sil": 5381,
      "Beşiktaş": 5382,
      "kavram": 5383,
      "Facebook": 5384,
      "##ütfen": 5385,
      "##ess": 5386,
      "etmektedir": 5387,
      "sonraki": 5388,
      "##ron": 5389,
      "##ation": 5390,
      "33": 5391,
      "kesinlikle": 5392,
      "pas": 5393,
      "##tiler": 5394,
      "bebek": 5395,
      "yönetic": 5396,
      "hüc": 5397,
      "Fenerbahçe": 5398,
      "güc": 5399,
      "##stagram": 5400,
      "dünyada": 5401,
      "##EY": 5402,
      "##elerinden": 5403,
      "hayır": 5404,
      "sek": 5405,
      "Fak": 5406,
      "ark": 5407,
      "işe": 5408,
      "işlemi": 5409,
      "anlamda": 5410,
      "AKP": 5411,
      "##enc": 5412,
      "transfer": 5413,
      "Uluslararası": 5414,
      "İran": 5415,
      "yaygın": 5416,
      "hikay": 5417,
      "Kurul": 5418,
      "Mas": 5419,
      "Teknik": 5420,
      "davet": 5421,
      "##tepe": 5422,
      "##lediği": 5423,
      "##raman": 5424,
      "##aza": 5425,
      "İngiltere": 5426,
      "belirterek": 5427,
      "##afir": 5428,
      "madd": 5429,
      "esas": 5430,
      "çalışmalar": 5431,
      "düğ": 5432,
      "önemlidir": 5433,
      "##abilmek": 5434,
      "Yol": 5435,
      "oranı": 5436,
      "kop": 5437,
      "##ılıç": 5438,
      "tatil": 5439,
      "döneminde": 5440,
      "taşın": 5441,
      "karşısında": 5442,
      "süt": 5443,
      "yapıldı": 5444,
      "yıldır": 5445,
      "Yet": 5446,
      "önlem": 5447,
      "##ildiği": 5448,
      "Den": 5449,
      "hafif": 5450,
      "imkan": 5451,
      "çocuğ": 5452,
      "Bahis": 5453,
      "şif": 5454,
      "açıkladı": 5455,
      "lazım": 5456,
      "Sadece": 5457,
      "düşür": 5458,
      "##brıs": 5459,
      "ucuz": 5460,
      "##ork": 5461,
      "ettir": 5462,
      "Şah": 5463,
      "bed": 5464,
      "sunul": 5465,
      "##EC": 5466,
      "be": 5467,
      "fiyatı": 5468,
      "##ydı": 5469,
      "Az": 5470,
      "standart": 5471,
      "##ise": 5472,
      "Kiş": 5473,
      "kurtar": 5474,
      "hisset": 5475,
      "Sin": 5476,
      "yerinde": 5477,
      "##atör": 5478,
      "onları": 5479,
      "kilo": 5480,
      "Mev": 5481,
      "##iydi": 5482,
      "onların": 5483,
      "takdir": 5484,
      "##lıkları": 5485,
      "Mobil": 5486,
      "yaşama": 5487,
      "psik": 5488,
      "##lüyor": 5489,
      "##ham": 5490,
      "Bayram": 5491,
      "tabi": 5492,
      "fil": 5493,
      "günlerde": 5494,
      "bol": 5495,
      "##cilik": 5496,
      "sonucunda": 5497,
      "açıkla": 5498,
      "Hol": 5499,
      "akıllı": 5500,
      "##liğe": 5501,
      "lar": 5502,
      "politik": 5503,
      "##ayla": 5504,
      "##gü": 5505,
      "Ber": 5506,
      "##embe": 5507,
      "yıllarda": 5508,
      "olumlu": 5509,
      "34": 5510,
      "gıda": 5511,
      "hisse": 5512,
      "yerleş": 5513,
      "##yap": 5514,
      "dosya": 5515,
      "##oca": 5516,
      "##pek": 5517,
      "zorun": 5518,
      "kadro": 5519,
      "kişilerin": 5520,
      "arac": 5521,
      "fizik": 5522,
      "hâ": 5523,
      "##hal": 5524,
      "Kürt": 5525,
      "##hendis": 5526,
      "##ternatif": 5527,
      "sona": 5528,
      "##ekim": 5529,
      "##ledi": 5530,
      "70": 5531,
      "Fil": 5532,
      "huzur": 5533,
      "eriş": 5534,
      "lez": 5535,
      "Cuma": 5536,
      "##tis": 5537,
      "Yardımcısı": 5538,
      "öden": 5539,
      "hizmetleri": 5540,
      "bitir": 5541,
      "yoksa": 5542,
      "oyunu": 5543,
      "##kale": 5544,
      "davranış": 5545,
      "##AĞ": 5546,
      "##iyer": 5547,
      "azal": 5548,
      "Gerçek": 5549,
      "Kıbrıs": 5550,
      "Ka": 5551,
      "hap": 5552,
      "##dat": 5553,
      "Uzun": 5554,
      "##erv": 5555,
      "edilmiş": 5556,
      "atı": 5557,
      "büt": 5558,
      "veri": 5559,
      "Rec": 5560,
      "Kol": 5561,
      "##ılarak": 5562,
      "##elerle": 5563,
      "##icari": 5564,
      "işlemleri": 5565,
      "Doğu": 5566,
      "##ata": 5567,
      "yapmaya": 5568,
      "2009": 5569,
      "Güney": 5570,
      "yerleştir": 5571,
      "bilinen": 5572,
      "sorunu": 5573,
      "tas": 5574,
      "birim": 5575,
      "##onya": 5576,
      "ortalama": 5577,
      "dak": 5578,
      "dijital": 5579,
      "ödem": 5580,
      "anne": 5581,
      "İsrail": 5582,
      "ür": 5583,
      "Başbakan": 5584,
      "çap": 5585,
      "gerektir": 5586,
      "kum": 5587,
      "##larındaki": 5588,
      "prot": 5589,
      "otomatik": 5590,
      "##his": 5591,
      "##ESİ": 5592,
      "edebilirsiniz": 5593,
      "##roid": 5594,
      "##atur": 5595,
      "olmuştur": 5596,
      "Hava": 5597,
      "doğrudan": 5598,
      "ülkemiz": 5599,
      "https": 5600,
      "baskı": 5601,
      "##çuk": 5602,
      "aşı": 5603,
      "anlamına": 5604,
      "##AV": 5605,
      "##âh": 5606,
      "##evizyon": 5607,
      "##sini": 5608,
      "yasak": 5609,
      "Giriş": 5610,
      "##ılmıştır": 5611,
      "##ong": 5612,
      "##mişti": 5613,
      "##sizlik": 5614,
      "yazılı": 5615,
      "##elt": 5616,
      "Mahallesi": 5617,
      "Sayın": 5618,
      "seyahat": 5619,
      "olmadan": 5620,
      "Altın": 5621,
      "yem": 5622,
      "##leşme": 5623,
      "##cının": 5624,
      "politika": 5625,
      "seçen": 5626,
      "ederim": 5627,
      "##muyor": 5628,
      "##cağına": 5629,
      "##yip": 5630,
      "bundan": 5631,
      "tedbir": 5632,
      "erken": 5633,
      "piş": 5634,
      "olmasına": 5635,
      "##ame": 5636,
      "uçuş": 5637,
      "##gıç": 5638,
      "çeken": 5639,
      "imz": 5640,
      "gaz": 5641,
      "Sa": 5642,
      "İki": 5643,
      "##ck": 5644,
      "Arka": 5645,
      "yada": 5646,
      "kullanımı": 5647,
      "çıkış": 5648,
      "popüler": 5649,
      "Kul": 5650,
      "Bankası": 5651,
      "##iyim": 5652,
      "##ersin": 5653,
      "Yatırım": 5654,
      "temin": 5655,
      "vb": 5656,
      "kendine": 5657,
      "bat": 5658,
      "düzenlem": 5659,
      "pozisyon": 5660,
      "şikayet": 5661,
      "özelliği": 5662,
      "kira": 5663,
      "##iklet": 5664,
      "korun": 5665,
      "danış": 5666,
      "soy": 5667,
      "##estor": 5668,
      "##ığ": 5669,
      "ürünler": 5670,
      "##Lİ": 5671,
      "Şeh": 5672,
      "##hone": 5673,
      "Nur": 5674,
      "##mit": 5675,
      "sert": 5676,
      "çal": 5677,
      "özellikleri": 5678,
      "meş": 5679,
      "##ment": 5680,
      "Escort": 5681,
      "Taş": 5682,
      "gide": 5683,
      "tren": 5684,
      "gündem": 5685,
      "nüf": 5686,
      "##üny": 5687,
      "aşağıdaki": 5688,
      "Kurum": 5689,
      "yetiş": 5690,
      "gül": 5691,
      "ton": 5692,
      "Amerik": 5693,
      "işç": 5694,
      "##layıp": 5695,
      "Yılmaz": 5696,
      "imk": 5697,
      "##liğin": 5698,
      "##larımıza": 5699,
      "edeceğ": 5700,
      "##estiv": 5701,
      "İşlem": 5702,
      "Güzel": 5703,
      "forex": 5704,
      "kaldı": 5705,
      "##üstü": 5706,
      "##son": 5707,
      "##aka": 5708,
      "Buna": 5709,
      "pla": 5710,
      "üçüncü": 5711,
      "##liğine": 5712,
      "müdahale": 5713,
      "yılda": 5714,
      "##our": 5715,
      "##ündeki": 5716,
      "teknoloji": 5717,
      "nden": 5718,
      "Mut": 5719,
      "alabil": 5720,
      "aşırı": 5721,
      "etmeye": 5722,
      "##OM": 5723,
      "buluş": 5724,
      "##mos": 5725,
      "olanak": 5726,
      "Serv": 5727,
      "##alim": 5728,
      "Adana": 5729,
      "almış": 5730,
      "vakit": 5731,
      "Yunan": 5732,
      "Para": 5733,
      "##ebilecek": 5734,
      "##IŞ": 5735,
      "ihti": 5736,
      "##tey": 5737,
      "sipariş": 5738,
      "dök": 5739,
      "yasal": 5740,
      "Bat": 5741,
      "dakik": 5742,
      "##eygam": 5743,
      "Küçük": 5744,
      "Kab": 5745,
      "hac": 5746,
      "yetkil": 5747,
      "geçerli": 5748,
      "evde": 5749,
      "##erseniz": 5750,
      "Mahk": 5751,
      "dahi": 5752,
      "##ai": 5753,
      "##gal": 5754,
      "yetiştir": 5755,
      "biçimde": 5756,
      "##manızı": 5757,
      "Fin": 5758,
      "aşama": 5759,
      "##ındır": 5760,
      "mükemmel": 5761,
      "ilçesinde": 5762,
      "sağlan": 5763,
      "kimse": 5764,
      "##ie": 5765,
      "Bizim": 5766,
      "konut": 5767,
      "birik": 5768,
      "App": 5769,
      "##onavirüs": 5770,
      "48": 5771,
      "##YA": 5772,
      "keyif": 5773,
      "Fatih": 5774,
      "güneş": 5775,
      "BİR": 5776,
      "Op": 5777,
      "##ete": 5778,
      "##likleri": 5779,
      "sap": 5780,
      "ışık": 5781,
      "insanın": 5782,
      "##eceğine": 5783,
      "55": 5784,
      "##ene": 5785,
      "eşit": 5786,
      "##ows": 5787,
      "##gör": 5788,
      "yor": 5789,
      "ikili": 5790,
      "Gür": 5791,
      "olmas": 5792,
      "Bunu": 5793,
      "##isinden": 5794,
      "sokak": 5795,
      "programı": 5796,
      "Çek": 5797,
      "vazgeç": 5798,
      "##diklerini": 5799,
      "altı": 5800,
      "hakkı": 5801,
      "ölçü": 5802,
      "öncesi": 5803,
      "ülkenin": 5804,
      "öğrenci": 5805,
      "toplu": 5806,
      "Tah": 5807,
      "##orta": 5808,
      "##bette": 5809,
      "çalışıyor": 5810,
      "##ultan": 5811,
      "##dal": 5812,
      "ni": 5813,
      "Okul": 5814,
      "kapas": 5815,
      "Eski": 5816,
      "##ayıf": 5817,
      "##iği": 5818,
      "##sur": 5819,
      "belediye": 5820,
      "içeren": 5821,
      "kod": 5822,
      "38": 5823,
      "süresi": 5824,
      "diren": 5825,
      "ide": 5826,
      "##arlar": 5827,
      "Dakika": 5828,
      "kapalı": 5829,
      "müdür": 5830,
      "harika": 5831,
      "##ses": 5832,
      "##rah": 5833,
      "vücu": 5834,
      "hus": 5835,
      "serbest": 5836,
      "##mur": 5837,
      "işbir": 5838,
      "modern": 5839,
      "nitelik": 5840,
      "##arken": 5841,
      "olduğuna": 5842,
      "sağlayacak": 5843,
      "2008": 5844,
      "asla": 5845,
      "Benim": 5846,
      "aydın": 5847,
      "##ht": 5848,
      "ndan": 5849,
      "##ray": 5850,
      "##yu": 5851,
      "44": 5852,
      "yansı": 5853,
      "Yazar": 5854,
      "rez": 5855,
      "istih": 5856,
      "mon": 5857,
      "yiy": 5858,
      "##liler": 5859,
      "getiren": 5860,
      "Elektr": 5861,
      "Pan": 5862,
      "##arya": 5863,
      "başlar": 5864,
      "Yine": 5865,
      "bunlar": 5866,
      "##ord": 5867,
      "##isiniz": 5868,
      "süreci": 5869,
      "##eygamber": 5870,
      "ısı": 5871,
      "##ube": 5872,
      "Kitap": 5873,
      "##haba": 5874,
      "etkisi": 5875,
      "Murat": 5876,
      "giden": 5877,
      "katıldı": 5878,
      "US": 5879,
      "kuvvet": 5880,
      "##layabilirsiniz": 5881,
      "Saat": 5882,
      "##har": 5883,
      "olduğunuz": 5884,
      "##erken": 5885,
      "##uldu": 5886,
      "yönetimi": 5887,
      "Sey": 5888,
      "nedeni": 5889,
      "##masıyla": 5890,
      "oyna": 5891,
      "Gerek": 5892,
      "ortadan": 5893,
      "Şehir": 5894,
      "##lerimizi": 5895,
      "def": 5896,
      "sorumlu": 5897,
      "##iyorlar": 5898,
      "bazen": 5899,
      "Paz": 5900,
      "koruma": 5901,
      "37": 5902,
      "azalt": 5903,
      "Böylece": 5904,
      "doğrult": 5905,
      "Dir": 5906,
      "##ısız": 5907,
      "##lığına": 5908,
      "##ısır": 5909,
      "##hane": 5910,
      "ayrıntı": 5911,
      "etmesi": 5912,
      "alıp": 5913,
      "detaylı": 5914,
      "SE": 5915,
      "Fransa": 5916,
      "Köy": 5917,
      "Hayat": 5918,
      "dışarı": 5919,
      "##biyat": 5920,
      "Tam": 5921,
      "dönüştür": 5922,
      "arz": 5923,
      "rakam": 5924,
      "km": 5925,
      "gönül": 5926,
      "Tat": 5927,
      "yaşında": 5928,
      "##urken": 5929,
      "##meliyat": 5930,
      "Güvenlik": 5931,
      "atan": 5932,
      "##leyici": 5933,
      "Kılıç": 5934,
      "kış": 5935,
      "##emiş": 5936,
      "meslek": 5937,
      "inşa": 5938,
      "numar": 5939,
      "edebilir": 5940,
      "Li": 5941,
      "doğum": 5942,
      "##ğan": 5943,
      "ekib": 5944,
      "Sonu": 5945,
      "birinci": 5946,
      "300": 5947,
      "##ASI": 5948,
      "şehit": 5949,
      "yapabilirsiniz": 5950,
      "##lardaki": 5951,
      "Le": 5952,
      "oyunları": 5953,
      "kans": 5954,
      "##ock": 5955,
      "alternatif": 5956,
      "Müslüman": 5957,
      "##avi": 5958,
      "yaparken": 5959,
      "Twitter": 5960,
      "katıl": 5961,
      "bec": 5962,
      "##ğında": 5963,
      "##omo": 5964,
      "Mic": 5965,
      "bunların": 5966,
      "vit": 5967,
      "kalp": 5968,
      "Net": 5969,
      "desteği": 5970,
      "##taki": 5971,
      "sine": 5972,
      "##US": 5973,
      "##mesinin": 5974,
      "##her": 5975,
      "uygulaması": 5976,
      "parti": 5977,
      "haberleri": 5978,
      "Çağ": 5979,
      "##aca": 5980,
      "balık": 5981,
      "iP": 5982,
      "fi": 5983,
      "tören": 5984,
      "isimli": 5985,
      "##TC": 5986,
      "##indows": 5987,
      "kem": 5988,
      "Milletvekili": 5989,
      "39": 5990,
      "çıkıyor": 5991,
      "olmalı": 5992,
      "sıf": 5993,
      "##bin": 5994,
      "soruştur": 5995,
      "büny": 5996,
      "askeri": 5997,
      "PKK": 5998,
      "Ed": 5999,
      "Fakült": 6000,
      "mo": 6001,
      "yeşil": 6002,
      "Pay": 6003,
      "türk": 6004,
      "##ond": 6005,
      "Peki": 6006,
      "Cez": 6007,
      "sermay": 6008,
      "##meni": 6009,
      "##ştık": 6010,
      "##isiyle": 6011,
      "kendisini": 6012,
      "sivil": 6013,
      "bet": 6014,
      "verildi": 6015,
      "##laya": 6016,
      "##itesi": 6017,
      "kıl": 6018,
      "##dırım": 6019,
      "Fr": 6020,
      "bunları": 6021,
      "##süz": 6022,
      "##all": 6023,
      "şaş": 6024,
      "tarım": 6025,
      "aracılığıyla": 6026,
      "Süper": 6027,
      "##pt": 6028,
      "##ınar": 6029,
      "Meclis": 6030,
      "cm": 6031,
      "GÜN": 6032,
      "##amazan": 6033,
      "ayı": 6034,
      "doğrultusunda": 6035,
      "milli": 6036,
      "Otel": 6037,
      "##kar": 6038,
      "yürüy": 6039,
      "New": 6040,
      "üzerindeki": 6041,
      "kırmızı": 6042,
      "##yım": 6043,
      "gelişim": 6044,
      "yola": 6045,
      "Hüs": 6046,
      "Recep": 6047,
      "##ersiz": 6048,
      "##LARI": 6049,
      "kale": 6050,
      "yapım": 6051,
      "kampanya": 6052,
      "başk": 6053,
      "##rom": 6054,
      "Gazetesi": 6055,
      "ata": 6056,
      "tane": 6057,
      "giren": 6058,
      "olmasını": 6059,
      "Irak": 6060,
      "##edim": 6061,
      "Düş": 6062,
      "park": 6063,
      "##leriniz": 6064,
      "##irken": 6065,
      "kullanmak": 6066,
      "Konya": 6067,
      "namaz": 6068,
      "ihracat": 6069,
      "ir": 6070,
      "kuru": 6071,
      "Co": 6072,
      "##tedir": 6073,
      "##orm": 6074,
      "##düm": 6075,
      "##ümüzdeki": 6076,
      "Müşt": 6077,
      "kullanılır": 6078,
      "onlar": 6079,
      "##rum": 6080,
      "##eytin": 6081,
      "cen": 6082,
      "##uzu": 6083,
      "##adeli": 6084,
      "İlet": 6085,
      "Dok": 6086,
      "Dair": 6087,
      "çay": 6088,
      "göç": 6089,
      "Am": 6090,
      "müşteriler": 6091,
      "##İD": 6092,
      "duvar": 6093,
      "197": 6094,
      "lig": 6095,
      "söylüyor": 6096,
      "Canlı": 6097,
      "istiyorsanız": 6098,
      "ez": 6099,
      "tepki": 6100,
      "##çesi": 6101,
      "Araştırma": 6102,
      "##ıklı": 6103,
      "rad": 6104,
      "durdur": 6105,
      "inşaat": 6106,
      "Hasan": 6107,
      "işte": 6108,
      "İm": 6109,
      "##ity": 6110,
      "ib": 6111,
      "kayıp": 6112,
      "bağımsız": 6113,
      "##iciler": 6114,
      "##emen": 6115,
      "Bilgi": 6116,
      "Zaman": 6117,
      "Van": 6118,
      "gal": 6119,
      "orada": 6120,
      "bulunma": 6121,
      "##ümüş": 6122,
      "##iyatro": 6123,
      "hükümet": 6124,
      "erişim": 6125,
      "##ukat": 6126,
      "##lanmıştır": 6127,
      "##ıf": 6128,
      "##işehir": 6129,
      "##landa": 6130,
      "aşk": 6131,
      "##aktör": 6132,
      "del": 6133,
      "kripto": 6134,
      "##abileceğiniz": 6135,
      "kendisi": 6136,
      "zev": 6137,
      "ef": 6138,
      "onlara": 6139,
      "şiir": 6140,
      "söyleyen": 6141,
      "Dil": 6142,
      "üyesi": 6143,
      "##emey": 6144,
      "yönlendir": 6145,
      "karıştır": 6146,
      "düzenlen": 6147,
      "geçti": 6148,
      "##MA": 6149,
      "tehdit": 6150,
      "çocuklar": 6151,
      "yıldız": 6152,
      "edip": 6153,
      "ticari": 6154,
      "Partisi": 6155,
      "42": 6156,
      "siyaset": 6157,
      "##yer": 6158,
      "##ovid": 6159,
      "diyerek": 6160,
      "co": 6161,
      "##LERİ": 6162,
      "peş": 6163,
      "belirtilen": 6164,
      "Sır": 6165,
      "##allah": 6166,
      "TR": 6167,
      "##EB": 6168,
      "##sını": 6169,
      "##ger": 6170,
      "aya": 6171,
      "civ": 6172,
      "##isa": 6173,
      "##brahim": 6174,
      "Arap": 6175,
      "düzenli": 6176,
      "fab": 6177,
      "##arbak": 6178,
      "reh": 6179,
      "Günü": 6180,
      "##kiler": 6181,
      "neredeyse": 6182,
      "Etiketler": 6183,
      "çab": 6184,
      "##ülebilir": 6185,
      "önceden": 6186,
      "Bilim": 6187,
      "Başkanlığı": 6188,
      "beden": 6189,
      "karşılı": 6190,
      "Tasar": 6191,
      "##vik": 6192,
      "kurtul": 6193,
      "köş": 6194,
      "yılın": 6195,
      "Android": 6196,
      "saha": 6197,
      "kriz": 6198,
      "Yıldırım": 6199,
      "döviz": 6200,
      "Erz": 6201,
      "okun": 6202,
      "olmaktadır": 6203,
      "savun": 6204,
      "almaktadır": 6205,
      "Port": 6206,
      "ediliyor": 6207,
      "kişilik": 6208,
      "##tansiy": 6209,
      "Str": 6210,
      "değeri": 6211,
      "ekipleri": 6212,
      "İd": 6213,
      "suyu": 6214,
      "evet": 6215,
      "##uç": 6216,
      "kapan": 6217,
      "##ısıt": 6218,
      "olduğumuz": 6219,
      "zayıf": 6220,
      "Post": 6221,
      "alındı": 6222,
      "##ırım": 6223,
      "##obüs": 6224,
      "Of": 6225,
      "##sinde": 6226,
      "depo": 6227,
      "##ınızın": 6228,
      "##adi": 6229,
      "##arbakır": 6230,
      "cilt": 6231,
      "##dek": 6232,
      "##rade": 6233,
      "resim": 6234,
      "##ÜRK": 6235,
      "##lardı": 6236,
      "iktidar": 6237,
      "Odası": 6238,
      "Mac": 6239,
      "##sinin": 6240,
      "vergi": 6241,
      "bilgilendir": 6242,
      "adresi": 6243,
      "41": 6244,
      "baba": 6245,
      "saygı": 6246,
      "ülkede": 6247,
      "##seri": 6248,
      "diyen": 6249,
      "##tör": 6250,
      "##aban": 6251,
      "kısmı": 6252,
      "Sig": 6253,
      "##OĞ": 6254,
      "Sanayi": 6255,
      "senin": 6256,
      "denetim": 6257,
      "Bütün": 6258,
      "MHP": 6259,
      "gr": 6260,
      "##ilim": 6261,
      "tır": 6262,
      "İL": 6263,
      "Ücret": 6264,
      "##antep": 6265,
      "yeter": 6266,
      "##we": 6267,
      "##urum": 6268,
      "düşünüyorum": 6269,
      "olduğundan": 6270,
      "belirlen": 6271,
      "binlerce": 6272,
      "Esk": 6273,
      "red": 6274,
      "##oyu": 6275,
      "etraf": 6276,
      "sağlıyor": 6277,
      "İnş": 6278,
      "43": 6279,
      "Hz": 6280,
      "sorgu": 6281,
      "lütfen": 6282,
      "Be": 6283,
      "Batı": 6284,
      "##acağız": 6285,
      "yakalan": 6286,
      "herkesin": 6287,
      "anlayış": 6288,
      "kullandı": 6289,
      "Bek": 6290,
      "##gr": 6291,
      "##liyat": 6292,
      "##ÜK": 6293,
      "Uygulama": 6294,
      "bl": 6295,
      "##etrol": 6296,
      "zih": 6297,
      "##layabilir": 6298,
      "##iya": 6299,
      "##liyet": 6300,
      "trafik": 6301,
      "kitab": 6302,
      "Sultan": 6303,
      "##iter": 6304,
      "Dolay": 6305,
      "##SK": 6306,
      "##celi": 6307,
      "rahatsız": 6308,
      "yapabilir": 6309,
      "##va": 6310,
      "##muştu": 6311,
      "##cil": 6312,
      "çoğ": 6313,
      "##oft": 6314,
      "kişiye": 6315,
      "##amet": 6316,
      "elektronik": 6317,
      "Malat": 6318,
      "yasa": 6319,
      "##emli": 6320,
      "##int": 6321,
      "Men": 6322,
      "Evet": 6323,
      "Hiç": 6324,
      "Kocaeli": 6325,
      "##zi": 6326,
      "##mada": 6327,
      "53": 6328,
      "47": 6329,
      "##ahtar": 6330,
      "ism": 6331,
      "sağlam": 6332,
      "gur": 6333,
      "geçiş": 6334,
      "##otel": 6335,
      "İletişim": 6336,
      "Yas": 6337,
      "yerini": 6338,
      "Kuzey": 6339,
      "##siyonu": 6340,
      "ihtiyacı": 6341,
      "##urda": 6342,
      "##eceğim": 6343,
      "salon": 6344,
      "asıl": 6345,
      "eğitimi": 6346,
      "Windows": 6347,
      "bulundur": 6348,
      "dizi": 6349,
      "adr": 6350,
      "kalma": 6351,
      "ettiğini": 6352,
      "itir": 6353,
      "##ner": 6354,
      "Sarı": 6355,
      "Belediy": 6356,
      "Gönder": 6357,
      "paylaşım": 6358,
      "gelenek": 6359,
      "##anlık": 6360,
      "cüm": 6361,
      "etkilen": 6362,
      "##arlı": 6363,
      "Is": 6364,
      "##anti": 6365,
      "getirdi": 6366,
      "alına": 6367,
      "##ıklık": 6368,
      "Com": 6369,
      "zamanlarda": 6370,
      "##başı": 6371,
      "##sit": 6372,
      "Tayyip": 6373,
      "##latı": 6374,
      "çoğun": 6375,
      "bö": 6376,
      "Üç": 6377,
      "dikkate": 6378,
      "##şamba": 6379,
      "Hep": 6380,
      "misafir": 6381,
      "##memiş": 6382,
      "##ry": 6383,
      "Teknoloji": 6384,
      "GÖ": 6385,
      "teb": 6386,
      "Yapılan": 6387,
      "farkında": 6388,
      "lir": 6389,
      "##şembe": 6390,
      "AT": 6391,
      "küresel": 6392,
      "46": 6393,
      "okuma": 6394,
      "vücut": 6395,
      "Fır": 6396,
      "virüs": 6397,
      "##UT": 6398,
      "Abd": 6399,
      "Balık": 6400,
      "Sü": 6401,
      "##ahmet": 6402,
      "haz": 6403,
      "49": 6404,
      "aktiv": 6405,
      "yarı": 6406,
      "iade": 6407,
      "endiş": 6408,
      "sunan": 6409,
      "##düz": 6410,
      "Emniyet": 6411,
      "noktada": 6412,
      "##demir": 6413,
      "##landığı": 6414,
      "##IS": 6415,
      "##do": 6416,
      "54": 6417,
      "verecek": 6418,
      "şunları": 6419,
      "##qu": 6420,
      "İbrahim": 6421,
      "bakış": 6422,
      "Tarım": 6423,
      "soğuk": 6424,
      "ekley": 6425,
      "vade": 6426,
      "Birleş": 6427,
      "##gre": 6428,
      "grub": 6429,
      "heyecan": 6430,
      "##acaktır": 6431,
      "hata": 6432,
      "##lasik": 6433,
      "KAR": 6434,
      "lezzet": 6435,
      "52": 6436,
      "çaba": 6437,
      "çerçevesinde": 6438,
      "çiçek": 6439,
      "Gündem": 6440,
      "bür": 6441,
      "##mediği": 6442,
      "kanun": 6443,
      "bağış": 6444,
      "seçenekleri": 6445,
      "##kırı": 6446,
      "BAŞ": 6447,
      "sorumluluk": 6448,
      "öğretim": 6449,
      "##DI": 6450,
      "bayram": 6451,
      "Piyas": 6452,
      "birden": 6453,
      "##gus": 6454,
      "##oto": 6455,
      "Hakkında": 6456,
      "kısıt": 6457,
      "sayede": 6458,
      "ters": 6459,
      "##tel": 6460,
      "potansiy": 6461,
      "##12": 6462,
      "Hastanesi": 6463,
      "komp": 6464,
      "gördüğ": 6465,
      "kurulu": 6466,
      "Diyarbakır": 6467,
      "##rop": 6468,
      "Pazartesi": 6469,
      "##OB": 6470,
      "le": 6471,
      "verilm": 6472,
      "Rüya": 6473,
      "uğraş": 6474,
      "##MM": 6475,
      "imkanı": 6476,
      "##ire": 6477,
      "##tuk": 6478,
      "##sında": 6479,
      "De": 6480,
      "İngilizce": 6481,
      "##mm": 6482,
      "hassas": 6483,
      "Kart": 6484,
      "incelem": 6485,
      "##maktan": 6486,
      "##luluğu": 6487,
      "##pa": 6488,
      "tatlı": 6489,
      "unsur": 6490,
      "##lanarak": 6491,
      "İkinci": 6492,
      "olanlar": 6493,
      "Boz": 6494,
      "istik": 6495,
      "sahn": 6496,
      "##ımın": 6497,
      "Fakültesi": 6498,
      "şarkı": 6499,
      "ins": 6500,
      "rast": 6501,
      "##ane": 6502,
      "##ilmektedir": 6503,
      "ilçe": 6504,
      "##arında": 6505,
      "##liğinin": 6506,
      "siyah": 6507,
      "##ress": 6508,
      "##lot": 6509,
      "faktör": 6510,
      "Artık": 6511,
      "Erkek": 6512,
      "af": 6513,
      "fer": 6514,
      "Çık": 6515,
      "almaya": 6516,
      "##altına": 6517,
      "Ramazan": 6518,
      "Mus": 6519,
      "##daşı": 6520,
      "Ex": 6521,
      "##etleri": 6522,
      "olacağını": 6523,
      "katılan": 6524,
      "ET": 6525,
      "bölgede": 6526,
      "Karşı": 6527,
      "şampiyon": 6528,
      "FET": 6529,
      "çevre": 6530,
      "Öğret": 6531,
      "##LAN": 6532,
      "toplumsal": 6533,
      "Sonuç": 6534,
      "kup": 6535,
      "Görün": 6536,
      "tuz": 6537,
      "bilir": 6538,
      "##udi": 6539,
      "##anız": 6540,
      "gem": 6541,
      "genelinde": 6542,
      "Apple": 6543,
      "mat": 6544,
      "dava": 6545,
      "başlıyor": 6546,
      "özen": 6547,
      "durumlarda": 6548,
      "istedik": 6549,
      "borsa": 6550,
      "tez": 6551,
      "eklen": 6552,
      "Ker": 6553,
      "Yeşil": 6554,
      "oyunc": 6555,
      "altyap": 6556,
      "becer": 6557,
      "58": 6558,
      "kolayca": 6559,
      "varlık": 6560,
      "##amik": 6561,
      "Sonra": 6562,
      "eve": 6563,
      "ameliyat": 6564,
      "maden": 6565,
      "ref": 6566,
      "giderek": 6567,
      "##köy": 6568,
      "veriler": 6569,
      "görsel": 6570,
      "Arkadaş": 6571,
      "##stik": 6572,
      "etik": 6573,
      "gelin": 6574,
      "Siv": 6575,
      "##fı": 6576,
      "Ef": 6577,
      "hediye": 6578,
      "Pak": 6579,
      "düşüş": 6580,
      "olası": 6581,
      "Gaziantep": 6582,
      "şer": 6583,
      "##öğ": 6584,
      "##maktay": 6585,
      "##tuğ": 6586,
      "hab": 6587,
      "##tacak": 6588,
      "kahv": 6589,
      "##lerimizin": 6590,
      "kred": 6591,
      "alınması": 6592,
      "ürünü": 6593,
      "oldukları": 6594,
      "Kil": 6595,
      "##kaya": 6596,
      "##dun": 6597,
      "##lamış": 6598,
      "nün": 6599,
      "ima": 6600,
      "yüzyıl": 6601,
      "bölge": 6602,
      "##iyorsunuz": 6603,
      "ilgilen": 6604,
      "istek": 6605,
      "üyelik": 6606,
      "şiş": 6607,
      "##jen": 6608,
      "##dığına": 6609,
      "Alı": 6610,
      "##ulmuş": 6611,
      "##LU": 6612,
      "##mız": 6613,
      "##ary": 6614,
      "öncelikle": 6615,
      "deprem": 6616,
      "Mersin": 6617,
      "Destek": 6618,
      "##ruf": 6619,
      "##ori": 6620,
      "görülen": 6621,
      "##mut": 6622,
      "gerçekleştirilen": 6623,
      "başkanı": 6624,
      "harca": 6625,
      "hakim": 6626,
      "##duğumuz": 6627,
      "ederken": 6628,
      "insanları": 6629,
      "kazanmak": 6630,
      "##OP": 6631,
      "sabit": 6632,
      "##unuzu": 6633,
      "dolaş": 6634,
      "##layacak": 6635,
      "mesel": 6636,
      "Mark": 6637,
      "araba": 6638,
      "##ileştir": 6639,
      "Hukuk": 6640,
      "##ınan": 6641,
      "sim": 6642,
      "Uk": 6643,
      "##bon": 6644,
      "hızla": 6645,
      "Jap": 6646,
      "bekliyor": 6647,
      "##ump": 6648,
      "kaydetti": 6649,
      "##uf": 6650,
      "##obot": 6651,
      "kartı": 6652,
      "##iyiz": 6653,
      "kus": 6654,
      "Futbol": 6655,
      "kurulan": 6656,
      "ade": 6657,
      "dolayısıyla": 6658,
      "65": 6659,
      "çalışması": 6660,
      "Hes": 6661,
      "televizyon": 6662,
      "kesim": 6663,
      "##yet": 6664,
      "kendilerine": 6665,
      "Güneş": 6666,
      "Muham": 6667,
      "##ulur": 6668,
      "yapılmış": 6669,
      "##liyoruz": 6670,
      "saf": 6671,
      "gösteriyor": 6672,
      "esnaf": 6673,
      "196": 6674,
      "Kaynak": 6675,
      "##ağıt": 6676,
      "56": 6677,
      "Cen": 6678,
      "Pat": 6679,
      "parçası": 6680,
      "gözlem": 6681,
      "uyan": 6682,
      "##ABER": 6683,
      "futbolcu": 6684,
      "FETÖ": 6685,
      "Gez": 6686,
      "##ese": 6687,
      "modelleri": 6688,
      "br": 6689,
      "dünyaya": 6690,
      "Euro": 6691,
      "Fer": 6692,
      "##liliği": 6693,
      "Yen": 6694,
      "sebebiyle": 6695,
      "bölgesinde": 6696,
      "bahset": 6697,
      "Nak": 6698,
      "##bank": 6699,
      "Çarşamba": 6700,
      "çocukların": 6701,
      "##omet": 6702,
      "ince": 6703,
      "açılış": 6704,
      "barış": 6705,
      "bulunur": 6706,
      "Dik": 6707,
      "Kanunu": 6708,
      "Teş": 6709,
      "koruy": 6710,
      "##eğini": 6711,
      "Mon": 6712,
      "dis": 6713,
      "Aj": 6714,
      "İŞ": 6715,
      "Ömer": 6716,
      "##ain": 6717,
      "port": 6718,
      "sana": 6719,
      "##manlık": 6720,
      "yerli": 6721,
      "bozuk": 6722,
      "Perşembe": 6723,
      "şirketi": 6724,
      "##cağınız": 6725,
      "kulak": 6726,
      "##sına": 6727,
      "uyum": 6728,
      "kaçır": 6729,
      "gösterir": 6730,
      "##isyen": 6731,
      "Hüseyin": 6732,
      "şeker": 6733,
      "geçtiğimiz": 6734,
      "TÜ": 6735,
      "Yok": 6736,
      "metre": 6737,
      "had": 6738,
      "Yazı": 6739,
      "hesabı": 6740,
      "korum": 6741,
      "üstün": 6742,
      "taşıyan": 6743,
      "ordu": 6744,
      "##isyonu": 6745,
      "So": 6746,
      "##eceksiniz": 6747,
      "Boy": 6748,
      "ap": 6749,
      "Mem": 6750,
      "teşvik": 6751,
      "hazırlanan": 6752,
      "Din": 6753,
      "fatur": 6754,
      "Mi": 6755,
      "Çelik": 6756,
      "çalıştır": 6757,
      "nüfus": 6758,
      "gücü": 6759,
      "gelmiş": 6760,
      "gizli": 6761,
      "##illa": 6762,
      "Turk": 6763,
      "finansal": 6764,
      "##EV": 6765,
      "Gar": 6766,
      "Yıldız": 6767,
      "istiyoruz": 6768,
      "##luluğ": 6769,
      "Mey": 6770,
      "duruş": 6771,
      "Trabzon": 6772,
      "Ses": 6773,
      "kök": 6774,
      "ant": 6775,
      "##ator": 6776,
      "400": 6777,
      "Cem": 6778,
      "Dolayısıyla": 6779,
      "aşa": 6780,
      "##lerim": 6781,
      "beklent": 6782,
      "##abilm": 6783,
      "##memiz": 6784,
      "Fark": 6785,
      "içindeki": 6786,
      "bom": 6787,
      "##nik": 6788,
      "Beyaz": 6789,
      "Cumhuriyeti": 6790,
      "Aslında": 6791,
      "vermiş": 6792,
      "Feder": 6793,
      "##land": 6794,
      "sevk": 6795,
      "##laz": 6796,
      "işlev": 6797,
      "Hatta": 6798,
      "Kut": 6799,
      "##undaki": 6800,
      "alabilirsiniz": 6801,
      "Çalışma": 6802,
      "restor": 6803,
      "gelişmeler": 6804,
      "##OT": 6805,
      "olmalıdır": 6806,
      "sebebi": 6807,
      "##anet": 6808,
      "51": 6809,
      "##acağını": 6810,
      "##FA": 6811,
      "sonuna": 6812,
      "mus": 6813,
      "Bölg": 6814,
      "benz": 6815,
      "##edek": 6816,
      "beb": 6817,
      "##eğe": 6818,
      "##alesef": 6819,
      "##türk": 6820,
      "ağaç": 6821,
      "akadem": 6822,
      "kayded": 6823,
      "zorunlu": 6824,
      "Kullanıcı": 6825,
      "##ulma": 6826,
      "filmi": 6827,
      "indirim": 6828,
      "##imizden": 6829,
      "##ERİ": 6830,
      "Turizm": 6831,
      "büyüm": 6832,
      "##andar": 6833,
      "adını": 6834,
      "bina": 6835,
      "Dep": 6836,
      "2007": 6837,
      "57": 6838,
      "##memek": 6839,
      "taleb": 6840,
      "Banka": 6841,
      "tanış": 6842,
      "##anda": 6843,
      "Ukray": 6844,
      "turizm": 6845,
      "##enkul": 6846,
      "ağrı": 6847,
      "uyarı": 6848,
      "Yal": 6849,
      "75": 6850,
      "##ıb": 6851,
      "Malatya": 6852,
      "Sek": 6853,
      "##olog": 6854,
      "itibariyle": 6855,
      "görünt": 6856,
      "karşılık": 6857,
      "##ell": 6858,
      "zevk": 6859,
      "Cumartesi": 6860,
      "kaynağı": 6861,
      "kullanan": 6862,
      "##şiv": 6863,
      "AY": 6864,
      "Vatan": 6865,
      "##car": 6866,
      "boğ": 6867,
      "##ektörü": 6868,
      "Kredi": 6869,
      "Zir": 6870,
      "Yurt": 6871,
      "yenil": 6872,
      "Salı": 6873,
      "Telefon": 6874,
      "hır": 6875,
      "##30": 6876,
      "öngör": 6877,
      "deng": 6878,
      "malzeme": 6879,
      "vs": 6880,
      "##ikat": 6881,
      "Enerj": 6882,
      "sinyal": 6883,
      "##ho": 6884,
      "##sem": 6885,
      "##ılmasını": 6886,
      "yaşadığı": 6887,
      "DA": 6888,
      "Bunlar": 6889,
      "İÇ": 6890,
      "##ılmasına": 6891,
      "vadeli": 6892,
      "alg": 6893,
      "biridir": 6894,
      "Kamu": 6895,
      "Şek": 6896,
      "ortamda": 6897,
      "Amerikan": 6898,
      "Ekonomi": 6899,
      "Online": 6900,
      "benzeri": 6901,
      "Yaşam": 6902,
      "Kanun": 6903,
      "maaş": 6904,
      "sakin": 6905,
      "##kil": 6906,
      "kullanma": 6907,
      "blog": 6908,
      "donan": 6909,
      "Po": 6910,
      "demir": 6911,
      "##YOR": 6912,
      "Instagram": 6913,
      "müs": 6914,
      "##lemeye": 6915,
      "Adı": 6916,
      "işler": 6917,
      "rezerv": 6918,
      "alk": 6919,
      "##leniyor": 6920,
      "yıllar": 6921,
      "##amin": 6922,
      "Bununla": 6923,
      "yatak": 6924,
      "boya": 6925,
      "TB": 6926,
      "yalan": 6927,
      "##ülmesi": 6928,
      "Çanak": 6929,
      "##fil": 6930,
      "##cık": 6931,
      "denet": 6932,
      "##ever": 6933,
      "Kent": 6934,
      "bulmak": 6935,
      "süren": 6936,
      "güçlendir": 6937,
      "sitesinde": 6938,
      "İN": 6939,
      "İşlet": 6940,
      "bence": 6941,
      "sever": 6942,
      "59": 6943,
      "roman": 6944,
      "iPhone": 6945,
      "##leyman": 6946,
      "Bahç": 6947,
      "geldiği": 6948,
      "##istin": 6949,
      "yangın": 6950,
      "##PS": 6951,
      "gözaltına": 6952,
      "maddi": 6953,
      "suy": 6954,
      "şim": 6955,
      "Herk": 6956,
      "##mesiyle": 6957,
      "AD": 6958,
      "##giler": 6959,
      "Akdeniz": 6960,
      "yoluyla": 6961,
      "##tığımız": 6962,
      "sanal": 6963,
      "##manıza": 6964,
      "HDP": 6965,
      "üretic": 6966,
      "##teşem": 6967,
      "Hız": 6968,
      "##alet": 6969,
      "YAP": 6970,
      "yolcu": 6971,
      "sorunları": 6972,
      "##lav": 6973,
      "yetenek": 6974,
      "açılan": 6975,
      "belediy": 6976,
      "Bab": 6977,
      "bölümü": 6978,
      "##dukları": 6979,
      "bedel": 6980,
      "yenilik": 6981,
      "konuşan": 6982,
      "##ordin": 6983,
      "Kaymak": 6984,
      "projesi": 6985,
      "bilinç": 6986,
      "Sohbet": 6987,
      "yargı": 6988,
      "mümkündür": 6989,
      "sanatçı": 6990,
      "##tanın": 6991,
      "organizasyon": 6992,
      "üyeleri": 6993,
      "##kabı": 6994,
      "ismi": 6995,
      "işin": 6996,
      "Grup": 6997,
      "karşılaştır": 6998,
      "sarı": 6999,
      "sahib": 7000,
      "Plan": 7001,
      "işçi": 7002,
      "Dig": 7003,
      "##mede": 7004,
      "zir": 7005,
      "cinsel": 7006,
      "mahalle": 7007,
      "##efonu": 7008,
      "görünüm": 7009,
      "Gençlik": 7010,
      "Şampiyon": 7011,
      "Fransız": 7012,
      "Hüküm": 7013,
      "HABER": 7014,
      "mezun": 7015,
      "rakip": 7016,
      "##adet": 7017,
      "sorunun": 7018,
      "##übü": 7019,
      "süreçte": 7020,
      "yaka": 7021,
      "uzat": 7022,
      "kadınlar": 7023,
      "nef": 7024,
      "öt": 7025,
      "##arik": 7026,
      "ulusal": 7027,
      "Siyas": 7028,
      "Aile": 7029,
      "##ayasa": 7030,
      "##daa": 7031,
      "##rag": 7032,
      "##CI": 7033,
      "pil": 7034,
      "gündeme": 7035,
      "takv": 7036,
      "şub": 7037,
      "Rek": 7038,
      "düşman": 7039,
      "mağdur": 7040,
      "İdar": 7041,
      "etki": 7042,
      "demokras": 7043,
      "böylece": 7044,
      "tartışma": 7045,
      "##İYE": 7046,
      "Peygamber": 7047,
      "şef": 7048,
      "ilişkiler": 7049,
      "##ÜL": 7050,
      "Tıp": 7051,
      "husus": 7052,
      "buz": 7053,
      "fel": 7054,
      "##UK": 7055,
      "ülkemizde": 7056,
      "Neden": 7057,
      "##LIK": 7058,
      "##uyoruz": 7059,
      "besin": 7060,
      "yöntemi": 7061,
      "takdirde": 7062,
      "##HA": 7063,
      "##şey": 7064,
      "istif": 7065,
      "##odrum": 7066,
      "##cılığı": 7067,
      "Sez": 7068,
      "iken": 7069,
      "faydalan": 7070,
      "dönüşüm": 7071,
      "##ılıp": 7072,
      "seviye": 7073,
      "memur": 7074,
      "aj": 7075,
      "ölçüde": 7076,
      "kalın": 7077,
      "##Dİ": 7078,
      "harit": 7079,
      "Araç": 7080,
      "grafik": 7081,
      "Ceza": 7082,
      "##abileceği": 7083,
      "Car": 7084,
      "Eskişehir": 7085,
      "TÜRK": 7086,
      "anlama": 7087,
      "üniversite": 7088,
      "okum": 7089,
      "Selçuk": 7090,
      "##duğunuz": 7091,
      "Sonr": 7092,
      "Ordu": 7093,
      "koru": 7094,
      "Gru": 7095,
      "anti": 7096,
      "##mesinde": 7097,
      "bakımından": 7098,
      "Süleyman": 7099,
      "##menizi": 7100,
      "Pas": 7101,
      "yayınlanan": 7102,
      "tasarruf": 7103,
      "karşıya": 7104,
      "Şahin": 7105,
      "umut": 7106,
      "kendilerini": 7107,
      "##ert": 7108,
      "birleştir": 7109,
      "Vali": 7110,
      "##üldü": 7111,
      "Oğ": 7112,
      "hazırlık": 7113,
      "buy": 7114,
      "kara": 7115,
      "##iyan": 7116,
      "##astik": 7117,
      "##bat": 7118,
      "başlangıç": 7119,
      "##isiklet": 7120,
      "Merhaba": 7121,
      "cum": 7122,
      "##gaz": 7123,
      "açıdan": 7124,
      "##lığının": 7125,
      "##pany": 7126,
      "Cevap": 7127,
      "kimlik": 7128,
      "Park": 7129,
      "##masyon": 7130,
      "mahkem": 7131,
      "Kav": 7132,
      "pratik": 7133,
      "edilebilir": 7134,
      "Toplantı": 7135,
      "Kons": 7136,
      "hoc": 7137,
      "##okul": 7138,
      "istediği": 7139,
      "çağr": 7140,
      "alak": 7141,
      "##nam": 7142,
      "##emizin": 7143,
      "##ko": 7144,
      "birini": 7145,
      "demektir": 7146,
      "temsilc": 7147,
      "SP": 7148,
      "sistemleri": 7149,
      "hayatı": 7150,
      "##cağım": 7151,
      "kıymet": 7152,
      "Çanakkale": 7153,
      "tit": 7154,
      "işlemler": 7155,
      "aralık": 7156,
      "maçı": 7157,
      "by": 7158,
      "##yüz": 7159,
      "müt": 7160,
      "verme": 7161,
      "Yav": 7162,
      "adlandır": 7163,
      "mens": 7164,
      "##eliği": 7165,
      "dağıt": 7166,
      "vermektedir": 7167,
      "toz": 7168,
      "Devam": 7169,
      "şehr": 7170,
      "İmam": 7171,
      "yapımı": 7172,
      "kanıt": 7173,
      "##uluğ": 7174,
      "Ge": 7175,
      "Olay": 7176,
      "kurumsal": 7177,
      "dey": 7178,
      "yaklaşım": 7179,
      "bahç": 7180,
      "##dışı": 7181,
      "##iyordu": 7182,
      "Kurt": 7183,
      "hepsi": 7184,
      "sıfır": 7185,
      "amb": 7186,
      "ER": 7187,
      "incelen": 7188,
      "Cih": 7189,
      "Far": 7190,
      "Yağ": 7191,
      "Bundan": 7192,
      "oynan": 7193,
      "ekibi": 7194,
      "seyir": 7195,
      "şaşır": 7196,
      "##nan": 7197,
      "Ukrayna": 7198,
      "sonuçları": 7199,
      "##ıldığında": 7200,
      "##day": 7201,
      "yapılabil": 7202,
      "Ya": 7203,
      "Ödül": 7204,
      "muhtem": 7205,
      "kıya": 7206,
      "fak": 7207,
      "Mel": 7208,
      "Şanlı": 7209,
      "Komut": 7210,
      "yaptıkları": 7211,
      "büyü": 7212,
      "ihale": 7213,
      "Fet": 7214,
      "eşi": 7215,
      "##lor": 7216,
      "yakından": 7217,
      "gerektiği": 7218,
      "otobüs": 7219,
      "çö": 7220,
      "Anal": 7221,
      "##dılar": 7222,
      "ces": 7223,
      "amaçlı": 7224,
      "rekabet": 7225,
      "türü": 7226,
      "##ima": 7227,
      "hakları": 7228,
      "##EZ": 7229,
      "##illi": 7230,
      "Mu": 7231,
      "acil": 7232,
      "değin": 7233,
      "bugüne": 7234,
      "II": 7235,
      "gi": 7236,
      "modeli": 7237,
      "Trump": 7238,
      "galib": 7239,
      "Don": 7240,
      "nı": 7241,
      "Demok": 7242,
      "##melidir": 7243,
      "##TI": 7244,
      "Sitesi": 7245,
      "150": 7246,
      "ulaştır": 7247,
      "Tok": 7248,
      "kamera": 7249,
      "##eceğimiz": 7250,
      "Bi": 7251,
      "yaşlı": 7252,
      "Con": 7253,
      "##daroğlu": 7254,
      "Sakarya": 7255,
      "bilgiye": 7256,
      "nesil": 7257,
      "##rama": 7258,
      "Başv": 7259,
      "Saç": 7260,
      "dip": 7261,
      "girdi": 7262,
      "Dünyanın": 7263,
      "fiziksel": 7264,
      "Düzen": 7265,
      "yapısı": 7266,
      "##ümr": 7267,
      "Ulusal": 7268,
      "sunulan": 7269,
      "##los": 7270,
      "ilginç": 7271,
      "Giz": 7272,
      "mevzu": 7273,
      "sıv": 7274,
      "fonk": 7275,
      "zamanı": 7276,
      "Hotel": 7277,
      "çıkart": 7278,
      "kamp": 7279,
      "şık": 7280,
      "##lerimize": 7281,
      "ren": 7282,
      "kaçın": 7283,
      "bulabilirsiniz": 7284,
      "kitabı": 7285,
      "kargo": 7286,
      "düzelt": 7287,
      "kısım": 7288,
      "kolaylaştır": 7289,
      "##uyorum": 7290,
      "terk": 7291,
      "Soy": 7292,
      "sel": 7293,
      "##les": 7294,
      "açıklaması": 7295,
      "EN": 7296,
      "yakala": 7297,
      "##th": 7298,
      "##andarma": 7299,
      "esnasında": 7300,
      "Kup": 7301,
      "birinin": 7302,
      "##SO": 7303,
      "##onspor": 7304,
      "Çift": 7305,
      "##laşık": 7306,
      "##ılmaktadır": 7307,
      "yönünde": 7308,
      "Di": 7309,
      "ideal": 7310,
      "vermeye": 7311,
      "##afer": 7312,
      "Karadeniz": 7313,
      "##UZ": 7314,
      "artan": 7315,
      "Mısır": 7316,
      "Tun": 7317,
      "##bahis": 7318,
      "savunma": 7319,
      "Polis": 7320,
      "Koç": 7321,
      "##ilmez": 7322,
      "dönemi": 7323,
      "kalite": 7324,
      "anında": 7325,
      "düştü": 7326,
      "sürecinde": 7327,
      "kültürel": 7328,
      "##Tİ": 7329,
      "fazlası": 7330,
      "Kayseri": 7331,
      "Organ": 7332,
      "kaza": 7333,
      "zek": 7334,
      "edilmiştir": 7335,
      "Çevre": 7336,
      "##errah": 7337,
      "##ris": 7338,
      "kapasit": 7339,
      "arab": 7340,
      "##liliğ": 7341,
      "maruz": 7342,
      "##malısınız": 7343,
      "edilecek": 7344,
      "##etiyle": 7345,
      "Savaş": 7346,
      "Onun": 7347,
      "##AF": 7348,
      "hissed": 7349,
      "##satı": 7350,
      "oranında": 7351,
      "##paşa": 7352,
      "başlayacak": 7353,
      "Kategor": 7354,
      "Asya": 7355,
      "miktarda": 7356,
      "Hast": 7357,
      "Ligi": 7358,
      "##siyet": 7359,
      "konuk": 7360,
      "salg": 7361,
      "##enizi": 7362,
      "istedi": 7363,
      "çıkma": 7364,
      "İliş": 7365,
      "yükselt": 7366,
      "##likler": 7367,
      "zinc": 7368,
      "dekor": 7369,
      "barındır": 7370,
      "##sar": 7371,
      "Denizli": 7372,
      "Karab": 7373,
      "darbe": 7374,
      "Kaç": 7375,
      "##lanabilir": 7376,
      "##düstr": 7377,
      "##ayıcı": 7378,
      "komisyon": 7379,
      "gitti": 7380,
      "edilmektedir": 7381,
      "Kendi": 7382,
      "haberi": 7383,
      "seni": 7384,
      "Casino": 7385,
      "belirtildi": 7386,
      "birbirinden": 7387,
      "##yasal": 7388,
      "düşen": 7389,
      "ÖZ": 7390,
      "sizler": 7391,
      "görevi": 7392,
      "Gaz": 7393,
      "hük": 7394,
      "##diniz": 7395,
      "##larınızın": 7396,
      "yapın": 7397,
      "##urk": 7398,
      "hücr": 7399,
      "yumuş": 7400,
      "Toplum": 7401,
      "##ıldığını": 7402,
      "üretimi": 7403,
      "##düğünü": 7404,
      "bünyesinde": 7405,
      "EK": 7406,
      "olacağı": 7407,
      "belirlenen": 7408,
      "tıp": 7409,
      "Medya": 7410,
      "##ome": 7411,
      "Öğretmen": 7412,
      "ulaşım": 7413,
      "olmayı": 7414,
      "Yah": 7415,
      "hapis": 7416,
      "yenilen": 7417,
      "Tor": 7418,
      "##ker": 7419,
      "bilimsel": 7420,
      "küt": 7421,
      "##itif": 7422,
      "nefes": 7423,
      "bende": 7424,
      "Bölüm": 7425,
      "##eyim": 7426,
      "Sı": 7427,
      "Avust": 7428,
      "buraya": 7429,
      "süs": 7430,
      "renkli": 7431,
      "sam": 7432,
      "##lendirme": 7433,
      "Bonu": 7434,
      "##makla": 7435,
      "akl": 7436,
      "dokun": 7437,
      "evlilik": 7438,
      "geçer": 7439,
      "tedavisi": 7440,
      "tablo": 7441,
      "##ğını": 7442,
      "kullanılabilir": 7443,
      "tad": 7444,
      "istihdam": 7445,
      "##11": 7446,
      "##iki": 7447,
      "Sivas": 7448,
      "yüzey": 7449,
      "##itir": 7450,
      "##leyerek": 7451,
      "adeta": 7452,
      "##uğla": 7453,
      "##tılan": 7454,
      "sanayi": 7455,
      "kalır": 7456,
      "konak": 7457,
      "Kısa": 7458,
      "kalem": 7459,
      "yans": 7460,
      "tanesi": 7461,
      "##lemesi": 7462,
      "petrol": 7463,
      "verimli": 7464,
      "koronavirüs": 7465,
      "Pr": 7466,
      "elbette": 7467,
      "ışı": 7468,
      "##okol": 7469,
      "##oj": 7470,
      "##liy": 7471,
      "Forum": 7472,
      "olduklarını": 7473,
      "##zan": 7474,
      "Doğru": 7475,
      "Nedir": 7476,
      "anlatan": 7477,
      "##dığından": 7478,
      "Fotoğraf": 7479,
      "İsv": 7480,
      "Kılıçdaroğlu": 7481,
      "kavuş": 7482,
      "tok": 7483,
      "##stit": 7484,
      "Rüyada": 7485,
      "öğrencilerin": 7486,
      "##tay": 7487,
      "yaşat": 7488,
      "yarın": 7489,
      "##ahh": 7490,
      "ofis": 7491,
      "bölümünde": 7492,
      "##ÜZ": 7493,
      "tali": 7494,
      "Orman": 7495,
      "penc": 7496,
      "İndir": 7497,
      "##ive": 7498,
      "yerden": 7499,
      "çalışır": 7500,
      "Boğ": 7501,
      "kanser": 7502,
      "ilişki": 7503,
      "Şanlıur": 7504,
      "Art": 7505,
      "##out": 7506,
      "Uzman": 7507,
      "##sör": 7508,
      "##pe": 7509,
      "Hazır": 7510,
      "##ağın": 7511,
      "tor": 7512,
      "##şi": 7513,
      "İST": 7514,
      "zorluk": 7515,
      "görünüyor": 7516,
      "##ARI": 7517,
      "yapmanız": 7518,
      "yarg": 7519,
      "##lerken": 7520,
      "önde": 7521,
      "##urta": 7522,
      "Öte": 7523,
      "İsmail": 7524,
      "Aşağı": 7525,
      "öncesinde": 7526,
      "mevcuttur": 7527,
      "Geçen": 7528,
      "Yunanistan": 7529,
      "grubu": 7530,
      "serg": 7531,
      "Finans": 7532,
      "yılından": 7533,
      "inanıyor": 7534,
      "##onun": 7535,
      "çekti": 7536,
      "Trabzonspor": 7537,
      "İtalya": 7538,
      "##dava": 7539,
      "verim": 7540,
      "vererek": 7541,
      "Model": 7542,
      "sınırlı": 7543,
      "##teyiz": 7544,
      "herkese": 7545,
      "korumak": 7546,
      "Muhammed": 7547,
      "sektöründe": 7548,
      "yüzünden": 7549,
      "niyet": 7550,
      "gösterdi": 7551,
      "Temel": 7552,
      "##ebiliriz": 7553,
      "ulaşabilirsiniz": 7554,
      "Kurumu": 7555,
      "getirmek": 7556,
      "Önce": 7557,
      "##gah": 7558,
      "cok": 7559,
      "##diğine": 7560,
      "##ilerden": 7561,
      "##lır": 7562,
      "coğraf": 7563,
      "önümüzdeki": 7564,
      "Si": 7565,
      "##dev": 7566,
      "##abilen": 7567,
      "buradan": 7568,
      "faydalı": 7569,
      "##ema": 7570,
      "##iyel": 7571,
      "Kir": 7572,
      "biçim": 7573,
      "##gat": 7574,
      "arkadaşlar": 7575,
      "2000": 7576,
      "refer": 7577,
      "insanlara": 7578,
      "uyumlu": 7579,
      "gazetec": 7580,
      "##yaspor": 7581,
      "süredir": 7582,
      "bileş": 7583,
      "##ılacağı": 7584,
      "edildiği": 7585,
      "Tav": 7586,
      "çağrı": 7587,
      "ep": 7588,
      "temas": 7589,
      "Pek": 7590,
      "##80": 7591,
      "link": 7592,
      "dayalı": 7593,
      "demiş": 7594,
      "tarihleri": 7595,
      "##şe": 7596,
      "Sınav": 7597,
      "yüküm": 7598,
      "ülkeler": 7599,
      "est": 7600,
      "pazarlama": 7601,
      "kazanma": 7602,
      "##kel": 7603,
      "Video": 7604,
      "aldım": 7605,
      "Rad": 7606,
      "Kazan": 7607,
      "##alığı": 7608,
      "##adir": 7609,
      "Danış": 7610,
      "Bayan": 7611,
      "komut": 7612,
      "isterseniz": 7613,
      "Festiv": 7614,
      "Şube": 7615,
      "biy": 7616,
      "##bek": 7617,
      "rej": 7618,
      "makam": 7619,
      "kurs": 7620,
      "BM": 7621,
      "duruma": 7622,
      "##aseb": 7623,
      "çey": 7624,
      "Elektrik": 7625,
      "gelişmiş": 7626,
      "Tut": 7627,
      "##red": 7628,
      "beyan": 7629,
      "##imiçi": 7630,
      "olabilirsiniz": 7631,
      "anahtar": 7632,
      "##larınıza": 7633,
      "sunar": 7634,
      "sinir": 7635,
      "Öncelikle": 7636,
      "numara": 7637,
      "Afrika": 7638,
      "Üyesi": 7639,
      "##ruk": 7640,
      "##melerin": 7641,
      "Birçok": 7642,
      "##var": 7643,
      "iyileştir": 7644,
      "##ebilmek": 7645,
      "olmayacak": 7646,
      "bekle": 7647,
      "Sok": 7648,
      "kazanan": 7649,
      "aykırı": 7650,
      "Doğan": 7651,
      "Şen": 7652,
      "temizlik": 7653,
      "Temiz": 7654,
      "hastalığı": 7655,
      "yürüyüş": 7656,
      "bitk": 7657,
      "avukat": 7658,
      "kli": 7659,
      "desteğ": 7660,
      "Rab": 7661,
      "##mamış": 7662,
      "bütç": 7663,
      "##lob": 7664,
      "gereği": 7665,
      "potansiyel": 7666,
      "##danı": 7667,
      "diyet": 7668,
      "##lari": 7669,
      "Mad": 7670,
      "Ege": 7671,
      "##ecekler": 7672,
      "##dırma": 7673,
      "hit": 7674,
      "Yukarı": 7675,
      "Soru": 7676,
      "pah": 7677,
      "sürücü": 7678,
      "##ileş": 7679,
      "Dışişleri": 7680,
      "alanları": 7681,
      "Satış": 7682,
      "##demi": 7683,
      "idi": 7684,
      "birer": 7685,
      "Cadde": 7686,
      "Kişisel": 7687,
      "içeriğ": 7688,
      "Bo": 7689,
      "taraftar": 7690,
      "##vekil": 7691,
      "çekici": 7692,
      "Reh": 7693,
      "mac": 7694,
      "görüşmeler": 7695,
      "##leyin": 7696,
      "çıkacak": 7697,
      "##ÜM": 7698,
      "Kahraman": 7699,
      "edi": 7700,
      "cezası": 7701,
      "Ders": 7702,
      "pişir": 7703,
      "insanı": 7704,
      "düzeyde": 7705,
      "##yaj": 7706,
      "kadınların": 7707,
      "sigorta": 7708,
      "taşım": 7709,
      "Enerji": 7710,
      "Güç": 7711,
      "yeme": 7712,
      "##ayım": 7713,
      "göl": 7714,
      "Bodrum": 7715,
      "kere": 7716,
      "dini": 7717,
      "##kur": 7718,
      "geleneksel": 7719,
      "yaşay": 7720,
      "##ral": 7721,
      "sa": 7722,
      "##İYOR": 7723,
      "99": 7724,
      "Ku": 7725,
      "##caktır": 7726,
      "##latma": 7727,
      "alb": 7728,
      "günümüz": 7729,
      "gördük": 7730,
      "##lamayı": 7731,
      "Bakanlığ": 7732,
      "##aktadır": 7733,
      "Not": 7734,
      "Madde": 7735,
      "##veren": 7736,
      "öy": 7737,
      "adalet": 7738,
      "kullanabilirsiniz": 7739,
      "##umaş": 7740,
      "gerekç": 7741,
      "takımı": 7742,
      "yapıldığı": 7743,
      "##iti": 7744,
      "telefonu": 7745,
      "##kanlığı": 7746,
      "oğlu": 7747,
      "kıyafet": 7748,
      "biliyor": 7749,
      "Emek": 7750,
      "İçer": 7751,
      "ifadelerini": 7752,
      "muhteşem": 7753,
      "##LA": 7754,
      "##müştür": 7755,
      "işbirliği": 7756,
      "Ann": 7757,
      "makale": 7758,
      "verilir": 7759,
      "bı": 7760,
      "##ketbol": 7761,
      "moda": 7762,
      "prote": 7763,
      "##kent": 7764,
      "##ick": 7765,
      "yah": 7766,
      "halkın": 7767,
      "Etkin": 7768,
      "öncelik": 7769,
      "kusur": 7770,
      "bağır": 7771,
      "ob": 7772,
      "orman": 7773,
      "##tifak": 7774,
      "##bey": 7775,
      "kullanılması": 7776,
      "##soy": 7777,
      "mühendis": 7778,
      "Azer": 7779,
      "##ilmesini": 7780,
      "Borsa": 7781,
      "##lanmaktadır": 7782,
      "güne": 7783,
      "PR": 7784,
      "Maç": 7785,
      "Akadem": 7786,
      "##sk": 7787,
      "olduğunda": 7788,
      "##riyet": 7789,
      "Yemek": 7790,
      "sonuçlar": 7791,
      "##19": 7792,
      "##anta": 7793,
      "vaka": 7794,
      "sunmaktadır": 7795,
      "##uşturucu": 7796,
      "Samsung": 7797,
      "taban": 7798,
      "##rosoft": 7799,
      "##tıcı": 7800,
      "##lerindeki": 7801,
      "##müyor": 7802,
      "Şey": 7803,
      "kulüp": 7804,
      "Digit": 7805,
      "uygulamaları": 7806,
      "şahıs": 7807,
      "birbirine": 7808,
      "Bölge": 7809,
      "##rol": 7810,
      "geçici": 7811,
      "##zersiz": 7812,
      "mekt": 7813,
      "esk": 7814,
      "birleş": 7815,
      "günümüzde": 7816,
      "gelip": 7817,
      "Gala": 7818,
      "boyu": 7819,
      "Hizmetleri": 7820,
      "final": 7821,
      "görür": 7822,
      "işgal": 7823,
      "1000": 7824,
      "Erzurum": 7825,
      "tarihli": 7826,
      "eh": 7827,
      "mimar": 7828,
      "##ull": 7829,
      "yitir": 7830,
      "Lim": 7831,
      "##ice": 7832,
      "Mez": 7833,
      "Tasarım": 7834,
      "kabil": 7835,
      "robot": 7836,
      "##usuf": 7837,
      "bez": 7838,
      "##tak": 7839,
      "Değer": 7840,
      "dikkatli": 7841,
      "kaçak": 7842,
      "ihtimal": 7843,
      "görme": 7844,
      "##ted": 7845,
      "çekme": 7846,
      "org": 7847,
      "##TA": 7848,
      "Şanlıurfa": 7849,
      "##mekten": 7850,
      "Küt": 7851,
      "civarında": 7852,
      "platformu": 7853,
      "##usunu": 7854,
      "Arab": 7855,
      "karma": 7856,
      "çalışmalarını": 7857,
      "La": 7858,
      "sitemiz": 7859,
      "##gari": 7860,
      "söylen": 7861,
      "bireysel": 7862,
      "Bebek": 7863,
      "tanıtım": 7864,
      "tabii": 7865,
      "##masın": 7866,
      "##ibe": 7867,
      "verilmesi": 7868,
      "aşağıda": 7869,
      "mini": 7870,
      "Sistemi": 7871,
      "yükseliş": 7872,
      "Abdullah": 7873,
      "günler": 7874,
      "sağlığı": 7875,
      "##miyorum": 7876,
      "##eral": 7877,
      "tavsiy": 7878,
      "##60": 7879,
      "AS": 7880,
      "enflasyon": 7881,
      "##ograf": 7882,
      "sürece": 7883,
      "yetkili": 7884,
      "sertif": 7885,
      "TBMM": 7886,
      "ücreti": 7887,
      "Değiş": 7888,
      "##40": 7889,
      "##otos": 7890,
      "hasar": 7891,
      "Kayı": 7892,
      "gür": 7893,
      "masa": 7894,
      "elb": 7895,
      "##era": 7896,
      "##15": 7897,
      "##abilmektedir": 7898,
      "Ede": 7899,
      "Rapor": 7900,
      "günden": 7901,
      "vir": 7902,
      "##ding": 7903,
      "olağan": 7904,
      "##isiz": 7905,
      "Kuş": 7906,
      "Hik": 7907,
      "geleceğ": 7908,
      "Şehit": 7909,
      "Dar": 7910,
      "##sızın": 7911,
      "oynay": 7912,
      "BİL": 7913,
      "Engel": 7914,
      "sevin": 7915,
      "pr": 7916,
      "mail": 7917,
      "kaybetti": 7918,
      "numarası": 7919,
      "altını": 7920,
      "##vel": 7921,
      "##indistan": 7922,
      "##sının": 7923,
      "##araj": 7924,
      "sorunlar": 7925,
      "katı": 7926,
      "devletin": 7927,
      "ufak": 7928,
      "farkı": 7929,
      "Grubu": 7930,
      "Ner": 7931,
      "##İLER": 7932,
      "araçları": 7933,
      "Duy": 7934,
      "##maması": 7935,
      "Üzer": 7936,
      "##kır": 7937,
      "olmaması": 7938,
      "klasik": 7939,
      "kullandığı": 7940,
      "Nev": 7941,
      "metal": 7942,
      "yazık": 7943,
      "tutan": 7944,
      "alakalı": 7945,
      "güvenliği": 7946,
      "##madığı": 7947,
      "##osk": 7948,
      "##uluyor": 7949,
      "iletişime": 7950,
      "Paşa": 7951,
      "tarayıcı": 7952,
      "##leket": 7953,
      "kalıcı": 7954,
      "##ükle": 7955,
      "##amuk": 7956,
      "vatandaşlar": 7957,
      "Hakan": 7958,
      "##fat": 7959,
      "sigort": 7960,
      "##şu": 7961,
      "alabilir": 7962,
      "keyifli": 7963,
      "anlattı": 7964,
      "şeyin": 7965,
      "Rum": 7966,
      "Mag": 7967,
      "Emre": 7968,
      "ürünlerin": 7969,
      "Projesi": 7970,
      "sözleşme": 7971,
      "##arım": 7972,
      "büyüme": 7973,
      "Öl": 7974,
      "##usuna": 7975,
      "Programı": 7976,
      "##rens": 7977,
      "Yerel": 7978,
      "çağır": 7979,
      "Hareket": 7980,
      "muhab": 7981,
      "Karak": 7982,
      "attı": 7983,
      "çekim": 7984,
      "kadının": 7985,
      "Fu": 7986,
      "alanlarda": 7987,
      "yolda": 7988,
      "##stra": 7989,
      "katılımcı": 7990,
      "##amam": 7991,
      "Uğ": 7992,
      "##melerini": 7993,
      "noktası": 7994,
      "usul": 7995,
      "yönde": 7996,
      "konularda": 7997,
      "##ümrük": 7998,
      "##atistik": 7999,
      "akış": 8000,
      "üstüne": 8001,
      "2006": 8002,
      "mor": 8003,
      "##tic": 8004,
      "gerçekleşen": 8005,
      "##eyecek": 8006,
      "##hats": 8007,
      "inci": 8008,
      "Mat": 8009,
      "izlen": 8010,
      "##und": 8011,
      "##emeyen": 8012,
      "şirketin": 8013,
      "rüya": 8014,
      "gayret": 8015,
      "Mesaj": 8016,
      "may": 8017,
      "lok": 8018,
      "verici": 8019,
      "##üye": 8020,
      "Gazete": 8021,
      "eleman": 8022,
      "alıcı": 8023,
      "emir": 8024,
      "hayırlı": 8025,
      "manz": 8026,
      "##üks": 8027,
      "Pla": 8028,
      "sebeple": 8029,
      "##lazığ": 8030,
      "##anları": 8031,
      "Ziy": 8032,
      "kaş": 8033,
      "##asız": 8034,
      "Özgür": 8035,
      "##İH": 8036,
      "Ec": 8037,
      "##TE": 8038,
      "AA": 8039,
      "İle": 8040,
      "##slan": 8041,
      "Ücretsiz": 8042,
      "Zaten": 8043,
      "çocuğun": 8044,
      "##amaya": 8045,
      "##okulu": 8046,
      "gerektiğ": 8047,
      "alması": 8048,
      "con": 8049,
      "##LAM": 8050,
      "sporcu": 8051,
      "lı": 8052,
      "ilave": 8053,
      "İÇİN": 8054,
      "ağr": 8055,
      "yolunda": 8056,
      "Stan": 8057,
      "##ülk": 8058,
      "Barış": 8059,
      "##elendir": 8060,
      "edebiyat": 8061,
      "##yken": 8062,
      "atık": 8063,
      "konfor": 8064,
      "haberler": 8065,
      "ayn": 8066,
      "stat": 8067,
      "Psik": 8068,
      "yaşıyor": 8069,
      "##ÖN": 8070,
      "Paylaş": 8071,
      "firması": 8072,
      "bekleniyor": 8073,
      "Farklı": 8074,
      "Naz": 8075,
      "alınarak": 8076,
      "zeytin": 8077,
      "sermaye": 8078,
      "##diye": 8079,
      "##ts": 8080,
      "seçeneği": 8081,
      "gurur": 8082,
      "##sesuar": 8083,
      "KUR": 8084,
      "yatırma": 8085,
      "SON": 8086,
      "yolculuk": 8087,
      "aralarında": 8088,
      "##espor": 8089,
      "çalışmak": 8090,
      "dilek": 8091,
      "beklenen": 8092,
      "##oo": 8093,
      "Bilgisayar": 8094,
      "mutluluk": 8095,
      "yaşamak": 8096,
      "##meyecek": 8097,
      "harekete": 8098,
      "bahsed": 8099,
      "##ym": 8100,
      "devrim": 8101,
      "halka": 8102,
      "kimi": 8103,
      "vası": 8104,
      "##alimanı": 8105,
      "fırsatı": 8106,
      "gelmesi": 8107,
      "satım": 8108,
      "sk": 8109,
      "Oto": 8110,
      "servisi": 8111,
      "inanç": 8112,
      "pozitif": 8113,
      "Bayramı": 8114,
      "fen": 8115,
      "düzenleme": 8116,
      "Birleşik": 8117,
      "Çay": 8118,
      "kahraman": 8119,
      "##ilmesine": 8120,
      "dakikada": 8121,
      "Kayıt": 8122,
      "Sun": 8123,
      "##çisi": 8124,
      "##irler": 8125,
      "Filistin": 8126,
      "ır": 8127,
      "günün": 8128,
      "##leki": 8129,
      "Resmi": 8130,
      "terörist": 8131,
      "edeceğiz": 8132,
      "metrek": 8133,
      "Tür": 8134,
      "##ug": 8135,
      "duygus": 8136,
      "##unuzun": 8137,
      "##ji": 8138,
      "ris": 8139,
      "göstermektedir": 8140,
      "Vakfı": 8141,
      "oluşturmak": 8142,
      "##eyerek": 8143,
      "gök": 8144,
      "soruşturma": 8145,
      "genelde": 8146,
      "işleri": 8147,
      "Sözleş": 8148,
      "şark": 8149,
      "kaybı": 8150,
      "##amıyor": 8151,
      "sıkı": 8152,
      "##öğretim": 8153,
      "işt": 8154,
      "Blog": 8155,
      "Fik": 8156,
      "##elle": 8157,
      "mür": 8158,
      "etmeniz": 8159,
      "yapılıyor": 8160,
      "##şap": 8161,
      "donanım": 8162,
      "##ash": 8163,
      "bask": 8164,
      "yetersiz": 8165,
      "uygulanan": 8166,
      "Belir": 8167,
      "sunduğu": 8168,
      "tepk": 8169,
      "##24": 8170,
      "kuzey": 8171,
      "250": 8172,
      "Yusuf": 8173,
      "anlaşma": 8174,
      "masraf": 8175,
      "##larken": 8176,
      "Görev": 8177,
      "emekli": 8178,
      "##barı": 8179,
      "tasarımı": 8180,
      "##xy": 8181,
      "edici": 8182,
      "##lığında": 8183,
      "AV": 8184,
      "yerlerde": 8185,
      "fonksiyon": 8186,
      "şirketleri": 8187,
      "beyin": 8188,
      "Manisa": 8189,
      "saatlerinde": 8190,
      "##po": 8191,
      "kullanıcıların": 8192,
      "Örg": 8193,
      "##ecik": 8194,
      "rehber": 8195,
      "Mühendis": 8196,
      "##uman": 8197,
      "yıllardır": 8198,
      "yaratıcı": 8199,
      "ayakkabı": 8200,
      "alanlar": 8201,
      "Sem": 8202,
      "Çak": 8203,
      "gerekse": 8204,
      "mutfak": 8205,
      "Doğal": 8206,
      "trend": 8207,
      "yarışma": 8208,
      "send": 8209,
      "adayı": 8210,
      "##sed": 8211,
      "mir": 8212,
      "başlama": 8213,
      "Kaf": 8214,
      "mikro": 8215,
      "hatt": 8216,
      "meclis": 8217,
      "You": 8218,
      "Yür": 8219,
      "##oper": 8220,
      "cumhur": 8221,
      "##imden": 8222,
      "##ferans": 8223,
      "##nuv": 8224,
      "garant": 8225,
      "eğlenceli": 8226,
      "beslenme": 8227,
      "Yönetimi": 8228,
      "##mosyon": 8229,
      "hatırlat": 8230,
      "##ood": 8231,
      "gecik": 8232,
      "piyasaya": 8233,
      "derecede": 8234,
      "diler": 8235,
      "dalg": 8236,
      "köpek": 8237,
      "meydan": 8238,
      "kullanıcılar": 8239,
      "antren": 8240,
      "köt": 8241,
      "itiraz": 8242,
      "imkân": 8243,
      "Kulübü": 8244,
      "yürür": 8245,
      "yel": 8246,
      "geldiğini": 8247,
      "ayda": 8248,
      "Diz": 8249,
      "gelmektedir": 8250,
      "##ât": 8251,
      "Gıda": 8252,
      "##fik": 8253,
      "amac": 8254,
      "bazıları": 8255,
      "Renk": 8256,
      "tazmin": 8257,
      "##INDA": 8258,
      "##memesi": 8259,
      "üstünde": 8260,
      "kafa": 8261,
      "meyve": 8262,
      "mali": 8263,
      "vek": 8264,
      "##lüğe": 8265,
      "Kaya": 8266,
      "##EH": 8267,
      "İkili": 8268,
      "##pat": 8269,
      "ederiz": 8270,
      "yarım": 8271,
      "Hatay": 8272,
      "Min": 8273,
      "ettim": 8274,
      "Eb": 8275,
      "İşleri": 8276,
      "Geçtiğimiz": 8277,
      "sanki": 8278,
      "netic": 8279,
      "elinde": 8280,
      "ente": 8281,
      "Nec": 8282,
      "sigara": 8283,
      "garanti": 8284,
      "##ilip": 8285,
      "arasından": 8286,
      "hazırla": 8287,
      "##maktayız": 8288,
      "##lobal": 8289,
      "tüketim": 8290,
      "düşünce": 8291,
      "örgütü": 8292,
      "bonusu": 8293,
      "mantık": 8294,
      "kariyer": 8295,
      "korku": 8296,
      "mağaz": 8297,
      "##16": 8298,
      "İlgili": 8299,
      "gitmek": 8300,
      "Kes": 8301,
      "##paz": 8302,
      "halkı": 8303,
      "Yaban": 8304,
      "sız": 8305,
      "öğrenmek": 8306,
      "iyice": 8307,
      "Pen": 8308,
      "yedek": 8309,
      "Fi": 8310,
      "hizmetler": 8311,
      "duyurdu": 8312,
      "##ich": 8313,
      "arayan": 8314,
      "##rip": 8315,
      "##ijinal": 8316,
      "##yaz": 8317,
      "##insel": 8318,
      "düşünül": 8319,
      "dayanıklı": 8320,
      "Doç": 8321,
      "##DEN": 8322,
      "istis": 8323,
      "babası": 8324,
      "yu": 8325,
      "miktarı": 8326,
      "##lete": 8327,
      "Taraf": 8328,
      "ST": 8329,
      "Başka": 8330,
      "tedarik": 8331,
      "maddesi": 8332,
      "değerlendirme": 8333,
      "yönel": 8334,
      "uyku": 8335,
      "##prü": 8336,
      "Doktor": 8337,
      "##meyin": 8338,
      "darb": 8339,
      "oranda": 8340,
      "oyunun": 8341,
      "inceleme": 8342,
      "Muğla": 8343,
      "Tarif": 8344,
      "val": 8345,
      "İr": 8346,
      "##DU": 8347,
      "Tabi": 8348,
      "kağıt": 8349,
      "##lıca": 8350,
      "oranları": 8351,
      "##ight": 8352,
      "ulaşmak": 8353,
      "##lesi": 8354,
      "Tabii": 8355,
      "##elerek": 8356,
      "##sh": 8357,
      "Th": 8358,
      "inc": 8359,
      "kons": 8360,
      "Platform": 8361,
      "Meclisi": 8362,
      "Takım": 8363,
      "##balık": 8364,
      "Lond": 8365,
      "mensup": 8366,
      "konser": 8367,
      "kalmış": 8368,
      "süper": 8369,
      "Karar": 8370,
      "panel": 8371,
      "görüyoruz": 8372,
      "Akıl": 8373,
      "cami": 8374,
      "satışa": 8375,
      "Dek": 8376,
      "yapıp": 8377,
      "gidip": 8378,
      "ekmek": 8379,
      "olduğum": 8380,
      "##ülük": 8381,
      "Bölgesi": 8382,
      "Proje": 8383,
      "Cep": 8384,
      "İlan": 8385,
      "etmiştir": 8386,
      "zemin": 8387,
      "Günlük": 8388,
      "tıklayın": 8389,
      "yapması": 8390,
      "##lukla": 8391,
      "##laştırma": 8392,
      "Yapı": 8393,
      "nas": 8394,
      "##ID": 8395,
      "##adem": 8396,
      "Çöz": 8397,
      "kimyasal": 8398,
      "ert": 8399,
      "##esir": 8400,
      "Günümüzde": 8401,
      "##oli": 8402,
      "##LİK": 8403,
      "evden": 8404,
      "toplumun": 8405,
      "Elazığ": 8406,
      "zamanında": 8407,
      "projeler": 8408,
      "##parator": 8409,
      "yağmur": 8410,
      "##lamaları": 8411,
      "##alefet": 8412,
      "##lıkta": 8413,
      "Site": 8414,
      "bilgisi": 8415,
      "##zat": 8416,
      "##atematik": 8417,
      "sıvı": 8418,
      "##INI": 8419,
      "##ysa": 8420,
      "kilit": 8421,
      "kendinizi": 8422,
      "gidiyor": 8423,
      "saniye": 8424,
      "##çın": 8425,
      "Adalet": 8426,
      "alınır": 8427,
      "Hollanda": 8428,
      "yapmayı": 8429,
      "yaralı": 8430,
      "USD": 8431,
      "Vol": 8432,
      "keşf": 8433,
      "##ANI": 8434,
      "eb": 8435,
      "yaptığımız": 8436,
      "##ürken": 8437,
      "Microsoft": 8438,
      "KON": 8439,
      "Bunların": 8440,
      "Mis": 8441,
      "verileri": 8442,
      "Hayvan": 8443,
      "Geri": 8444,
      "##irim": 8445,
      "blok": 8446,
      "64": 8447,
      "Zor": 8448,
      "##çu": 8449,
      "makinesi": 8450,
      "inf": 8451,
      "Azerbay": 8452,
      "gayet": 8453,
      "Play": 8454,
      "##ayacak": 8455,
      "##simum": 8456,
      "sos": 8457,
      "üstü": 8458,
      "##ayol": 8459,
      "ağz": 8460,
      "edece": 8461,
      "bileti": 8462,
      "çor": 8463,
      "ölü": 8464,
      "##antin": 8465,
      "##ometre": 8466,
      "edilebil": 8467,
      "##ilme": 8468,
      "kapsamlı": 8469,
      "##abor": 8470,
      "buldu": 8471,
      "Ziyaret": 8472,
      "çalışmaya": 8473,
      "hayatta": 8474,
      "##kınma": 8475,
      "baktığ": 8476,
      "ex": 8477,
      "rüz": 8478,
      "Dijital": 8479,
      "cenaz": 8480,
      "##18": 8481,
      "Gümüş": 8482,
      "Hindistan": 8483,
      "piyasasında": 8484,
      "##ider": 8485,
      "##imum": 8486,
      "Müşteri": 8487,
      "kazandı": 8488,
      "Ala": 8489,
      "rekor": 8490,
      "dedim": 8491,
      "##des": 8492,
      "yöntemleri": 8493,
      "##EŞ": 8494,
      "hali": 8495,
      "karşımıza": 8496,
      "şarj": 8497,
      "nö": 8498,
      "##ilerde": 8499,
      "##öv": 8500,
      "halen": 8501,
      "Covid": 8502,
      "Paris": 8503,
      "TC": 8504,
      "##iyetini": 8505,
      "##diy": 8506,
      "Dağ": 8507,
      "azından": 8508,
      "##ıbbi": 8509,
      "##usuz": 8510,
      "tipi": 8511,
      "##ây": 8512,
      "koltuk": 8513,
      "##ahis": 8514,
      "bulunması": 8515,
      "BU": 8516,
      "yolları": 8517,
      "çevrimiçi": 8518,
      "sergil": 8519,
      "şartları": 8520,
      "Mahkemesi": 8521,
      "Uğur": 8522,
      "muhaf": 8523,
      "yanına": 8524,
      "600": 8525,
      "görebil": 8526,
      "yumurta": 8527,
      "düğün": 8528,
      "yerler": 8529,
      "alet": 8530,
      "çök": 8531,
      "belgesi": 8532,
      "maalesef": 8533,
      "kullanıyor": 8534,
      "Eğit": 8535,
      "##ende": 8536,
      "##diğin": 8537,
      "##ılmak": 8538,
      "Baz": 8539,
      "çocukları": 8540,
      "birliği": 8541,
      "Kral": 8542,
      "Şim": 8543,
      "doy": 8544,
      "emniyet": 8545,
      "haklı": 8546,
      "üretilen": 8547,
      "Savaşı": 8548,
      "okur": 8549,
      "##kun": 8550,
      "##ırlar": 8551,
      "iklim": 8552,
      "yör": 8553,
      "özgü": 8554,
      "##İNE": 8555,
      "far": 8556,
      "pahalı": 8557,
      "sevgi": 8558,
      "##mamak": 8559,
      "yılının": 8560,
      "Ortak": 8561,
      "harf": 8562,
      "siteler": 8563,
      "##mara": 8564,
      "##anızı": 8565,
      "bağımlı": 8566,
      "##ansiyon": 8567,
      "##ildiğini": 8568,
      "Yat": 8569,
      "##ikal": 8570,
      "rö": 8571,
      "##ME": 8572,
      "bizlere": 8573,
      "Üret": 8574,
      "##duğum": 8575,
      "dür": 8576,
      "no": 8577,
      "Göster": 8578,
      "Metin": 8579,
      "##likte": 8580,
      "yorumlar": 8581,
      "seçimi": 8582,
      "kâ": 8583,
      "topr": 8584,
      "##ach": 8585,
      "kızı": 8586,
      "maçta": 8587,
      "Anayasa": 8588,
      "kaps": 8589,
      "tiyatro": 8590,
      "noktasında": 8591,
      "##asi": 8592,
      "İnşaat": 8593,
      "sisteminin": 8594,
      "admin": 8595,
      "sağlamaktadır": 8596,
      "kıyas": 8597,
      "bilgilere": 8598,
      "##idi": 8599,
      "traf": 8600,
      "Ardından": 8601,
      "##25": 8602,
      "##biy": 8603,
      "kalıyor": 8604,
      "##lasman": 8605,
      "Başvuru": 8606,
      "Diş": 8607,
      "##ader": 8608,
      "bakan": 8609,
      "engelli": 8610,
      "kodu": 8611,
      "zamanlar": 8612,
      "başlıklı": 8613,
      "icra": 8614,
      "Savunma": 8615,
      "##oter": 8616,
      "ondan": 8617,
      "Digiturk": 8618,
      "metin": 8619,
      "birimi": 8620,
      "Sch": 8621,
      "sevgil": 8622,
      "Oper": 8623,
      "forum": 8624,
      "ker": 8625,
      "maçında": 8626,
      "Ünlü": 8627,
      "İt": 8628,
      "deneme": 8629,
      "TEK": 8630,
      "##esto": 8631,
      "olmadı": 8632,
      "##yiz": 8633,
      "Cor": 8634,
      "##öyl": 8635,
      "ran": 8636,
      "dua": 8637,
      "##leyecek": 8638,
      "ndeki": 8639,
      "Kadınlar": 8640,
      "hayran": 8641,
      "##unuza": 8642,
      "##abilmesi": 8643,
      "Gol": 8644,
      "##şet": 8645,
      "profil": 8646,
      "kiralama": 8647,
      "ticareti": 8648,
      "havuz": 8649,
      "yüzlerce": 8650,
      "hoca": 8651,
      "algı": 8652,
      "gereksin": 8653,
      "firmamız": 8654,
      "arkadaşı": 8655,
      "##OV": 8656,
      "Terör": 8657,
      "Servis": 8658,
      "eme": 8659,
      "##tre": 8660,
      "kaydı": 8661,
      "diyebilir": 8662,
      "##led": 8663,
      "açtı": 8664,
      "örneğin": 8665,
      "##ech": 8666,
      "bilen": 8667,
      "Cil": 8668,
      "denk": 8669,
      "##isindeki": 8670,
      "cüz": 8671,
      "kaybeden": 8672,
      "Dolar": 8673,
      "Azerbaycan": 8674,
      "##ates": 8675,
      "kahve": 8676,
      "ekonomi": 8677,
      "Uç": 8678,
      "istanbul": 8679,
      "##utin": 8680,
      "iddaa": 8681,
      "Mücad": 8682,
      "Belki": 8683,
      "protokol": 8684,
      "Hangi": 8685,
      "vücud": 8686,
      "acaba": 8687,
      "##urdu": 8688,
      "##unus": 8689,
      "Kuvvet": 8690,
      "ikram": 8691,
      "Politik": 8692,
      "kimsenin": 8693,
      "isteyenler": 8694,
      "anlamı": 8695,
      "sürpr": 8696,
      "kişilere": 8697,
      "nih": 8698,
      "işletme": 8699,
      "evren": 8700,
      "##lack": 8701,
      "dolarlık": 8702,
      "söylemek": 8703,
      "##lant": 8704,
      "##beri": 8705,
      "firmalar": 8706,
      "muay": 8707,
      "hurda": 8708,
      "##lemiş": 8709,
      "##17": 8710,
      "Ur": 8711,
      "Tük": 8712,
      "sanay": 8713,
      "muk": 8714,
      "bulama": 8715,
      "rahatlıkla": 8716,
      "##kon": 8717,
      "Mo": 8718,
      "araz": 8719,
      "yiyecek": 8720,
      "alımı": 8721,
      "Zira": 8722,
      "##ife": 8723,
      "Mik": 8724,
      "Person": 8725,
      "Basın": 8726,
      "tablet": 8727,
      "sinema": 8728,
      "##ith": 8729,
      "oyunlar": 8730,
      "##eğine": 8731,
      "kahvaltı": 8732,
      "##melik": 8733,
      "endüstr": 8734,
      "halı": 8735,
      "##ELER": 8736,
      "##ısal": 8737,
      "teşekkürler": 8738,
      "ülkelerin": 8739,
      "etmeyi": 8740,
      "85": 8741,
      "Müdürlüğ": 8742,
      "yönlü": 8743,
      "parlak": 8744,
      "##MAN": 8745,
      "##dınız": 8746,
      "çatışma": 8747,
      "özgürlük": 8748,
      "MÜ": 8749,
      "oluşturan": 8750,
      "tuş": 8751,
      "2005": 8752,
      "Oku": 8753,
      "##MS": 8754,
      "etkileş": 8755,
      "teor": 8756,
      "silin": 8757,
      "yapıyoruz": 8758,
      "York": 8759,
      "köp": 8760,
      "##ayolu": 8761,
      "Lisesi": 8762,
      "vatandaşların": 8763,
      "##ks": 8764,
      "rahmet": 8765,
      "Enstit": 8766,
      "İncel": 8767,
      "Önceki": 8768,
      "##Ğİ": 8769,
      "ust": 8770,
      "fabrika": 8771,
      "mün": 8772,
      "Vatandaş": 8773,
      "bildirdi": 8774,
      "önemi": 8775,
      "turist": 8776,
      "anı": 8777,
      "##üman": 8778,
      "Hır": 8779,
      "kelime": 8780,
      "Ph": 8781,
      "yansıt": 8782,
      "sessiz": 8783,
      "uyuşturucu": 8784,
      "Adam": 8785,
      "##öylelikle": 8786,
      "Roman": 8787,
      "Yaklaşık": 8788,
      "##mini": 8789,
      "ağız": 8790,
      "sürüyor": 8791,
      "kumaş": 8792,
      "karbon": 8793,
      "##emektedir": 8794,
      "Ağır": 8795,
      "prim": 8796,
      "falan": 8797,
      "süreli": 8798,
      "psikolojik": 8799,
      "##otik": 8800,
      "Örgüt": 8801,
      "##ole": 8802,
      "ED": 8803,
      "kalb": 8804,
      "alırken": 8805,
      "Hemen": 8806,
      "dük": 8807,
      "çekiyor": 8808,
      "##lamada": 8809,
      "Kontrol": 8810,
      "sürüm": 8811,
      "Toplam": 8812,
      "##luyor": 8813,
      "başı": 8814,
      "yağı": 8815,
      "plana": 8816,
      "Caddesi": 8817,
      "##ens": 8818,
      "He": 8819,
      "##dirne": 8820,
      "alama": 8821,
      "bisiklet": 8822,
      "nakliyat": 8823,
      "çelik": 8824,
      "##lâm": 8825,
      "lideri": 8826,
      "##mesinden": 8827,
      "gram": 8828,
      "çıkmış": 8829,
      "##mali": 8830,
      "mağaza": 8831,
      "Lisans": 8832,
      "Hızlı": 8833,
      "kalitesi": 8834,
      "ört": 8835,
      "güney": 8836,
      "Göl": 8837,
      "odası": 8838,
      "##ohn": 8839,
      "Marka": 8840,
      "##aborat": 8841,
      "demokratik": 8842,
      "gelişme": 8843,
      "Ata": 8844,
      "İY": 8845,
      "aley": 8846,
      "##ette": 8847,
      "195": 8848,
      "##dış": 8849,
      "pencer": 8850,
      "PC": 8851,
      "Sabah": 8852,
      "Aşk": 8853,
      "##utma": 8854,
      "Bahçeli": 8855,
      "Mor": 8856,
      "Sekret": 8857,
      "olunca": 8858,
      "Kore": 8859,
      "##laşması": 8860,
      "##emize": 8861,
      "##14": 8862,
      "##kilat": 8863,
      "alana": 8864,
      "taraftan": 8865,
      "İb": 8866,
      "durumun": 8867,
      "##ua": 8868,
      "##rimenkul": 8869,
      "##elal": 8870,
      "Federasyonu": 8871,
      "kararlı": 8872,
      "bağlam": 8873,
      "kişiyi": 8874,
      "##aklı": 8875,
      "oynamak": 8876,
      "tanın": 8877,
      "OR": 8878,
      "##lup": 8879,
      "95": 8880,
      "yahut": 8881,
      "olmanın": 8882,
      "##UŞ": 8883,
      "##lex": 8884,
      "##alaj": 8885,
      "ürünün": 8886,
      "##maktır": 8887,
      "gidiş": 8888,
      "hukuki": 8889,
      "Trans": 8890,
      "##iliğini": 8891,
      "##cüsü": 8892,
      "gözük": 8893,
      "olmasa": 8894,
      "arşiv": 8895,
      "##ebiliyor": 8896,
      "##eyebilirsiniz": 8897,
      "yıla": 8898,
      "Işık": 8899,
      "##and": 8900,
      "aktivit": 8901,
      "olmanız": 8902,
      "Hesap": 8903,
      "memleket": 8904,
      "##avul": 8905,
      "Öğretim": 8906,
      "edilerek": 8907,
      "##bı": 8908,
      "ÖN": 8909,
      "olmaları": 8910,
      "içerir": 8911,
      "vide": 8912,
      "##gül": 8913,
      "tamamlan": 8914,
      "devreye": 8915,
      "Mek": 8916,
      "belge": 8917,
      "mevsim": 8918,
      "yapılmaktadır": 8919,
      "toh": 8920,
      "uğra": 8921,
      "anket": 8922,
      "##kal": 8923,
      "Bölümü": 8924,
      "bulabil": 8925,
      "##OC": 8926,
      "##SA": 8927,
      "mm": 8928,
      "##menize": 8929,
      "zincir": 8930,
      "olabilecek": 8931,
      "Üstelik": 8932,
      "##ilya": 8933,
      "ekipman": 8934,
      "dosy": 8935,
      "nem": 8936,
      "hanım": 8937,
      "##ws": 8938,
      "##lamanın": 8939,
      "egzersiz": 8940,
      "İçişleri": 8941,
      "##tılar": 8942,
      "keyf": 8943,
      "geride": 8944,
      "sağlanması": 8945,
      "Balıkesir": 8946,
      "riski": 8947,
      "Geliş": 8948,
      "Tip": 8949,
      "sh": 8950,
      "##ang": 8951,
      "yoktu": 8952,
      "başlamış": 8953,
      "Kış": 8954,
      "sektörü": 8955,
      "seven": 8956,
      "Ap": 8957,
      "göğ": 8958,
      "##labilir": 8959,
      "ettikleri": 8960,
      "olmaktan": 8961,
      "gözden": 8962,
      "Mağ": 8963,
      "Görüntü": 8964,
      "Roma": 8965,
      "##umuzun": 8966,
      "dez": 8967,
      "Ha": 8968,
      "##laştık": 8969,
      "##ulacak": 8970,
      "Temsil": 8971,
      "##imizle": 8972,
      "sayısının": 8973,
      "idari": 8974,
      "göm": 8975,
      "alkol": 8976,
      "##raz": 8977,
      "öm": 8978,
      "##13": 8979,
      "hakaret": 8980,
      "##eciler": 8981,
      "yukarıda": 8982,
      "##ura": 8983,
      "##tikten": 8984,
      "bulunduğunu": 8985,
      "hekim": 8986,
      "Oyuncu": 8987,
      "##tih": 8988,
      "aylarında": 8989,
      "ihlal": 8990,
      "sef": 8991,
      "üs": 8992,
      "medyada": 8993,
      "##diğinden": 8994,
      "##ürriyet": 8995,
      "##sis": 8996,
      "##ALI": 8997,
      "##iplin": 8998,
      "Orhan": 8999,
      "kaşı": 9000,
      "usta": 9001,
      "log": 9002,
      "Hey": 9003,
      "zirv": 9004,
      "Jandarma": 9005,
      "kenar": 9006,
      "ch": 9007,
      "##ulmaz": 9008,
      "##lamalar": 9009,
      "açıklamalarda": 9010,
      "kullanı": 9011,
      "açıklandı": 9012,
      "Yakın": 9013,
      "Tesis": 9014,
      "##ğına": 9015,
      "120": 9016,
      "Tedav": 9017,
      "adresimi": 9018,
      "Jo": 9019,
      "TAR": 9020,
      "İspanya": 9021,
      "liste": 9022,
      "##lon": 9023,
      "Kanal": 9024,
      "Anne": 9025,
      "merkezinde": 9026,
      "##melisiniz": 9027,
      "##öly": 9028,
      "kritik": 9029,
      "festiv": 9030,
      "##outube": 9031,
      "nakliye": 9032,
      "çalışmalarına": 9033,
      "##İB": 9034,
      "Müzik": 9035,
      "açıldı": 9036,
      "Whats": 9037,
      "alınacak": 9038,
      "##lılar": 9039,
      "Reklam": 9040,
      "altyapı": 9041,
      "numaralı": 9042,
      "##ami": 9043,
      "odaklı": 9044,
      "özellikler": 9045,
      "##ilerinden": 9046,
      "mesle": 9047,
      "suretiyle": 9048,
      "##tiğiniz": 9049,
      "Sol": 9050,
      "çocuğu": 9051,
      "sunum": 9052,
      "kullanılmaktadır": 9053,
      "saatleri": 9054,
      "Örnek": 9055,
      "anlamak": 9056,
      "sevg": 9057,
      "##akk": 9058,
      "içeriği": 9059,
      "sitenin": 9060,
      "öğrencileri": 9061,
      "YIL": 9062,
      "Öyle": 9063,
      "aksine": 9064,
      "yaptım": 9065,
      "gördü": 9066,
      "hakkını": 9067,
      "##DAN": 9068,
      "güzellik": 9069,
      "##dy": 9070,
      "##avuş": 9071,
      "Sınıf": 9072,
      "kullanılabil": 9073,
      "öğrenildi": 9074,
      "gelerek": 9075,
      "piyasası": 9076,
      "##ağını": 9077,
      "##EO": 9078,
      "97": 9079,
      "slot": 9080,
      "hatırla": 9081,
      "Saray": 9082,
      "uygulamalar": 9083,
      "##oid": 9084,
      "##ft": 9085,
      "Malz": 9086,
      "##eter": 9087,
      "66": 9088,
      "karşın": 9089,
      "##ılmaya": 9090,
      "sorular": 9091,
      "selam": 9092,
      "Londra": 9093,
      "Pa": 9094,
      "paz": 9095,
      "kâr": 9096,
      "plastik": 9097,
      "katk": 9098,
      "kurmak": 9099,
      "Siyah": 9100,
      "##alel": 9101,
      "çıkması": 9102,
      "sanırım": 9103,
      "ettiler": 9104,
      "yeten": 9105,
      "Ail": 9106,
      "##ektif": 9107,
      "mekaniz": 9108,
      "bitki": 9109,
      "asit": 9110,
      "##eleriyle": 9111,
      "##ani": 9112,
      "etken": 9113,
      "işleme": 9114,
      "##çin": 9115,
      "meyv": 9116,
      "Geliştir": 9117,
      "hip": 9118,
      "##tığınız": 9119,
      "##22": 9120,
      "oldum": 9121,
      "yağış": 9122,
      "hemş": 9123,
      "##YON": 9124,
      "kemik": 9125,
      "mide": 9126,
      "haftada": 9127,
      "##CE": 9128,
      "##remi": 9129,
      "boyutu": 9130,
      "kaybol": 9131,
      "verilecek": 9132,
      "kaynaklı": 9133,
      "Komisyonu": 9134,
      "##este": 9135,
      "mavi": 9136,
      "Pi": 9137,
      "ves": 9138,
      "##own": 9139,
      "##gıt": 9140,
      "bölgeye": 9141,
      "ith": 9142,
      "##api": 9143,
      "özet": 9144,
      "Foreks": 9145,
      "set": 9146,
      "İp": 9147,
      "kumar": 9148,
      "Edirne": 9149,
      "##ebi": 9150,
      "##mu": 9151,
      "Hayır": 9152,
      "evinde": 9153,
      "genişlet": 9154,
      "##ARA": 9155,
      "şekli": 9156,
      "VER": 9157,
      "##ect": 9158,
      "rezervasyon": 9159,
      "güz": 9160,
      "##ica": 9161,
      "Seçim": 9162,
      "dönemlerde": 9163,
      "Yü": 9164,
      "kıv": 9165,
      "##ACAK": 9166,
      "Qu": 9167,
      "akr": 9168,
      "Yabancı": 9169,
      "makine": 9170,
      "Air": 9171,
      "Çiçek": 9172,
      "katkıda": 9173,
      "Motor": 9174,
      "##larımızla": 9175,
      "promosyon": 9176,
      "tutul": 9177,
      "Yalnız": 9178,
      "tap": 9179,
      "Fiyatları": 9180,
      "##leştirme": 9181,
      "##bahar": 9182,
      "Bana": 9183,
      "dili": 9184,
      "sö": 9185,
      "evlen": 9186,
      "adamı": 9187,
      "##raç": 9188,
      "konuyu": 9189,
      "oluşum": 9190,
      "oluşur": 9191,
      "##İST": 9192,
      "hitap": 9193,
      "parmak": 9194,
      "##ayas": 9195,
      "ettiğiniz": 9196,
      "John": 9197,
      "manevi": 9198,
      "duyarlı": 9199,
      "sözleri": 9200,
      "açma": 9201,
      "##ill": 9202,
      "çeş": 9203,
      "##diven": 9204,
      "diplo": 9205,
      "maz": 9206,
      "katıldığı": 9207,
      "itibarı": 9208,
      "ani": 9209,
      "Nit": 9210,
      "ihtiyacınız": 9211,
      "damar": 9212,
      "##yaman": 9213,
      "olayı": 9214,
      "maksimum": 9215,
      "caz": 9216,
      "##rü": 9217,
      "şehrin": 9218,
      "nelerdir": 9219,
      "##İP": 9220,
      "kapsamda": 9221,
      "Sorum": 9222,
      "Lev": 9223,
      "hediy": 9224,
      "##das": 9225,
      "aldığınız": 9226,
      "##ükleer": 9227,
      "buluştur": 9228,
      "Sizin": 9229,
      "Sup": 9230,
      "##acağım": 9231,
      "Tim": 9232,
      "##DEM": 9233,
      "Sektör": 9234,
      "büyüy": 9235,
      "His": 9236,
      "Ziraat": 9237,
      "kolaylıkla": 9238,
      "GEL": 9239,
      "fet": 9240,
      "##INA": 9241,
      "##büs": 9242,
      "Tren": 9243,
      "sürpriz": 9244,
      "gelmiştir": 9245,
      "##usunun": 9246,
      "##suzluk": 9247,
      "felsef": 9248,
      "##dün": 9249,
      "Uçak": 9250,
      "kurban": 9251,
      "sorunsuz": 9252,
      "açan": 9253,
      "##linik": 9254,
      "geb": 9255,
      "keşfet": 9256,
      "çıktığı": 9257,
      "67": 9258,
      "geliştirme": 9259,
      "##landırıcı": 9260,
      "hariç": 9261,
      "konular": 9262,
      "değildi": 9263,
      "kuralları": 9264,
      "Mimar": 9265,
      "Marmara": 9266,
      "Japonya": 9267,
      "işyer": 9268,
      "##duktan": 9269,
      "ömür": 9270,
      "eklem": 9271,
      "görevl": 9272,
      "koşulları": 9273,
      "kilometre": 9274,
      "piyasada": 9275,
      "deneyimi": 9276,
      "satıcı": 9277,
      "yumuşak": 9278,
      "sırt": 9279,
      "##itör": 9280,
      "Kanunun": 9281,
      "##lerdeki": 9282,
      "mezar": 9283,
      "firmaları": 9284,
      "yolculuğ": 9285,
      "th": 9286,
      "Başar": 9287,
      "dâh": 9288,
      "izleme": 9289,
      "İlç": 9290,
      "ilçesi": 9291,
      "ulaştı": 9292,
      "Konuş": 9293,
      "##ure": 9294,
      "çekir": 9295,
      "Oysa": 9296,
      "Meslek": 9297,
      "sizleri": 9298,
      "##enize": 9299,
      "##denin": 9300,
      "Konseyi": 9301,
      "sahne": 9302,
      "##enn": 9303,
      "aldık": 9304,
      "dışına": 9305,
      "kitle": 9306,
      "taki": 9307,
      "##unt": 9308,
      "Tiyatro": 9309,
      "çapında": 9310,
      "istikrar": 9311,
      "Öde": 9312,
      "Def": 9313,
      "Galaxy": 9314,
      "hayatın": 9315,
      "UY": 9316,
      "kullanılarak": 9317,
      "makyaj": 9318,
      "gerekirse": 9319,
      "aracın": 9320,
      "Havalimanı": 9321,
      "çekmek": 9322,
      "##ilerle": 9323,
      "Yarış": 9324,
      "tüketic": 9325,
      "Edebiyat": 9326,
      "##CEL": 9327,
      "tüc": 9328,
      "başarısız": 9329,
      "yedi": 9330,
      "muhalefet": 9331,
      "##sever": 9332,
      "düzenlediği": 9333,
      "fiyatlar": 9334,
      "tarihinden": 9335,
      "##32": 9336,
      "##çilerin": 9337,
      "fabrik": 9338,
      "Ulu": 9339,
      "seçenekler": 9340,
      "görüşme": 9341,
      "##imle": 9342,
      "geçiyor": 9343,
      "yoğ": 9344,
      "eşliğinde": 9345,
      "ödey": 9346,
      "tehlikeli": 9347,
      "ış": 9348,
      "##amızda": 9349,
      "##ox": 9350,
      "##tikçe": 9351,
      "Pop": 9352,
      "sembol": 9353,
      "IŞ": 9354,
      "KAY": 9355,
      "##ish": 9356,
      "sabır": 9357,
      "bizimle": 9358,
      "kutu": 9359,
      "galibiyet": 9360,
      "Tanrı": 9361,
      "##tral": 9362,
      "toplantısında": 9363,
      "Hastalık": 9364,
      "milletvekil": 9365,
      "sözü": 9366,
      "##antaj": 9367,
      "hattı": 9368,
      "Tep": 9369,
      "Üye": 9370,
      "Köyü": 9371,
      "por": 9372,
      "anlayışı": 9373,
      "geldiğinde": 9374,
      "Emir": 9375,
      "mahkeme": 9376,
      "anlar": 9377,
      "onur": 9378,
      "mülk": 9379,
      "zamanlı": 9380,
      "Sk": 9381,
      "yapabil": 9382,
      "Emin": 9383,
      "şartı": 9384,
      "Kupası": 9385,
      "hakkındaki": 9386,
      "listesi": 9387,
      "##abilirler": 9388,
      "olamaz": 9389,
      "ortada": 9390,
      "planı": 9391,
      "geril": 9392,
      "şeyleri": 9393,
      "kuy": 9394,
      "##cuk": 9395,
      "cinayet": 9396,
      "limit": 9397,
      "değişikliği": 9398,
      "Uygun": 9399,
      "##io": 9400,
      "geliştirmek": 9401,
      "Baba": 9402,
      "başladığı": 9403,
      "Dikkat": 9404,
      "gelişen": 9405,
      "yaptığını": 9406,
      "saati": 9407,
      "getirdiği": 9408,
      "iyileş": 9409,
      "forma": 9410,
      "##tası": 9411,
      "düzgün": 9412,
      "yazın": 9413,
      "deri": 9414,
      "denir": 9415,
      "gördüğü": 9416,
      "çizg": 9417,
      "##ubu": 9418,
      "doz": 9419,
      "aşkın": 9420,
      "##kim": 9421,
      "ailesi": 9422,
      "Alev": 9423,
      "talebi": 9424,
      "yapılabilir": 9425,
      "uzaktan": 9426,
      "##landığını": 9427,
      "salgın": 9428,
      "yıld": 9429,
      "##larımı": 9430,
      "Ermen": 9431,
      "##lit": 9432,
      "##eğinde": 9433,
      "sitede": 9434,
      "YEN": 9435,
      "zararlı": 9436,
      "##liğiyle": 9437,
      "albüm": 9438,
      "##sey": 9439,
      "sitesinin": 9440,
      "Dis": 9441,
      "açmak": 9442,
      "asgari": 9443,
      "göstermek": 9444,
      "194": 9445,
      "fık": 9446,
      "sunucu": 9447,
      "bakın": 9448,
      "yakış": 9449,
      "olmay": 9450,
      "##tıkları": 9451,
      "biliyoruz": 9452,
      "##FT": 9453,
      "bekleyen": 9454,
      "arasına": 9455,
      "2004": 9456,
      "talimat": 9457,
      "beslen": 9458,
      "altındaki": 9459,
      "gelince": 9460,
      "bedava": 9461,
      "danışman": 9462,
      "Yüksel": 9463,
      "ec": 9464,
      "Afyon": 9465,
      "kriter": 9466,
      "gösterdiği": 9467,
      "Boğaz": 9468,
      "##üyü": 9469,
      "seri": 9470,
      "##mis": 9471,
      "Mir": 9472,
      "sesli": 9473,
      "##üphan": 9474,
      "içinden": 9475,
      "Teknoloj": 9476,
      "arıyor": 9477,
      "##ilin": 9478,
      "doğan": 9479,
      "anlatıyor": 9480,
      "arkasında": 9481,
      "DEĞ": 9482,
      "şifr": 9483,
      "##ilmelidir": 9484,
      "fuar": 9485,
      "##ersiniz": 9486,
      "ayrıntılı": 9487,
      "ekstra": 9488,
      "enfeksiyon": 9489,
      "Geb": 9490,
      "kısmında": 9491,
      "72": 9492,
      "##lerinize": 9493,
      "Kale": 9494,
      "##cilerin": 9495,
      "bulma": 9496,
      "öğrencilere": 9497,
      "arzu": 9498,
      "İslâm": 9499,
      "açıkça": 9500,
      "Saf": 9501,
      "hızı": 9502,
      "##ılav": 9503,
      "şunu": 9504,
      "Yanıt": 9505,
      "Satın": 9506,
      "tarafında": 9507,
      "Sık": 9508,
      "##lıktan": 9509,
      "alanına": 9510,
      "Festivali": 9511,
      "##alog": 9512,
      "DEV": 9513,
      "kade": 9514,
      "Size": 9515,
      "Yavuz": 9516,
      "##esun": 9517,
      "##ülent": 9518,
      "meden": 9519,
      "siteye": 9520,
      "Onlar": 9521,
      "##ree": 9522,
      "##ektaş": 9523,
      "teknolojik": 9524,
      "olama": 9525,
      "Valisi": 9526,
      "çalıştık": 9527,
      "##oks": 9528,
      "##emizi": 9529,
      "##eryal": 9530,
      "##İSİ": 9531,
      "dinamik": 9532,
      "##enf": 9533,
      "Bavul": 9534,
      "##TR": 9535,
      "pen": 9536,
      "dernek": 9537,
      "##cük": 9538,
      "anlamlı": 9539,
      "Moda": 9540,
      "kulüb": 9541,
      "kaşığı": 9542,
      "kaldığı": 9543,
      "birine": 9544,
      "toplantısı": 9545,
      "chat": 9546,
      "##kili": 9547,
      "Başak": 9548,
      "##ste": 9549,
      "##imini": 9550,
      "kamuoy": 9551,
      "tamir": 9552,
      "##iller": 9553,
      "ülkeye": 9554,
      "ailen": 9555,
      "##ld": 9556,
      "işletmeler": 9557,
      "Hedef": 9558,
      "##şak": 9559,
      "##maraş": 9560,
      "doku": 9561,
      "##ann": 9562,
      "##larımızda": 9563,
      "##föy": 9564,
      "cerrah": 9565,
      "##lerdi": 9566,
      "işletim": 9567,
      "aran": 9568,
      "Ajansı": 9569,
      "Ruh": 9570,
      "kırık": 9571,
      "##cusu": 9572,
      "şeye": 9573,
      "##PG": 9574,
      "##portaj": 9575,
      "##ERS": 9576,
      "değişen": 9577,
      "olaylar": 9578,
      "##rist": 9579,
      "olduğunun": 9580,
      "Kaymakam": 9581,
      "##lıyoruz": 9582,
      "##TV": 9583,
      "dolara": 9584,
      "İYİ": 9585,
      "etkileri": 9586,
      "nakit": 9587,
      "yükümlül": 9588,
[...]
